node {
  name: "global_step/Initializer/zeros"
  op: "Const"
  attr {
    key: "_class"
    value {
      list {
        s: "loc:@global_step"
      }
    }
  }
  attr {
    key: "_output_shapes"
    value {
      list {
        shape {
        }
      }
    }
  }
  attr {
    key: "dtype"
    value {
      type: DT_INT64
    }
  }
  attr {
    key: "value"
    value {
      tensor {
        dtype: DT_INT64
        tensor_shape {
        }
        int64_val: 0
      }
    }
  }
}
node {
  name: "global_step"
  op: "VariableV2"
  attr {
    key: "_class"
    value {
      list {
        s: "loc:@global_step"
      }
    }
  }
  attr {
    key: "_output_shapes"
    value {
      list {
        shape {
        }
      }
    }
  }
  attr {
    key: "container"
    value {
      s: ""
    }
  }
  attr {
    key: "dtype"
    value {
      type: DT_INT64
    }
  }
  attr {
    key: "shape"
    value {
      shape {
      }
    }
  }
  attr {
    key: "shared_name"
    value {
      s: ""
    }
  }
}
node {
  name: "global_step/Assign"
  op: "Assign"
  input: "global_step"
  input: "global_step/Initializer/zeros"
  attr {
    key: "T"
    value {
      type: DT_INT64
    }
  }
  attr {
    key: "_class"
    value {
      list {
        s: "loc:@global_step"
      }
    }
  }
  attr {
    key: "_output_shapes"
    value {
      list {
        shape {
        }
      }
    }
  }
  attr {
    key: "use_locking"
    value {
      b: true
    }
  }
  attr {
    key: "validate_shape"
    value {
      b: true
    }
  }
}
node {
  name: "global_step/read"
  op: "Identity"
  input: "global_step"
  attr {
    key: "T"
    value {
      type: DT_INT64
    }
  }
  attr {
    key: "_class"
    value {
      list {
        s: "loc:@global_step"
      }
    }
  }
  attr {
    key: "_output_shapes"
    value {
      list {
        shape {
        }
      }
    }
  }
}
node {
  name: "global_step/IsVariableInitialized"
  op: "IsVariableInitialized"
  input: "global_step"
  attr {
    key: "_class"
    value {
      list {
        s: "loc:@global_step"
      }
    }
  }
  attr {
    key: "_output_shapes"
    value {
      list {
        shape {
        }
      }
    }
  }
  attr {
    key: "dtype"
    value {
      type: DT_INT64
    }
  }
}
node {
  name: "global_step/cond/Switch"
  op: "Switch"
  input: "global_step/IsVariableInitialized"
  input: "global_step/IsVariableInitialized"
  attr {
    key: "T"
    value {
      type: DT_BOOL
    }
  }
  attr {
    key: "_output_shapes"
    value {
      list {
        shape {
        }
        shape {
        }
      }
    }
  }
}
node {
  name: "global_step/cond/switch_t"
  op: "Identity"
  input: "global_step/cond/Switch"
  attr {
    key: "T"
    value {
      type: DT_BOOL
    }
  }
  attr {
    key: "_output_shapes"
    value {
      list {
        shape {
        }
      }
    }
  }
}
node {
  name: "global_step/cond/switch_f"
  op: "Identity"
  input: "global_step/cond/Switch"
  attr {
    key: "T"
    value {
      type: DT_BOOL
    }
  }
  attr {
    key: "_output_shapes"
    value {
      list {
        shape {
        }
      }
    }
  }
}
node {
  name: "global_step/cond/pred_id"
  op: "Identity"
  input: "global_step/IsVariableInitialized"
  attr {
    key: "T"
    value {
      type: DT_BOOL
    }
  }
  attr {
    key: "_output_shapes"
    value {
      list {
        shape {
        }
      }
    }
  }
}
node {
  name: "global_step/cond/read"
  op: "Identity"
  input: "global_step/cond/read/Switch"
  attr {
    key: "T"
    value {
      type: DT_INT64
    }
  }
  attr {
    key: "_output_shapes"
    value {
      list {
        shape {
        }
      }
    }
  }
}
node {
  name: "global_step/cond/read/Switch"
  op: "RefSwitch"
  input: "global_step"
  input: "global_step/cond/pred_id"
  attr {
    key: "T"
    value {
      type: DT_INT64
    }
  }
  attr {
    key: "_class"
    value {
      list {
        s: "loc:@global_step"
      }
    }
  }
  attr {
    key: "_output_shapes"
    value {
      list {
        shape {
        }
        shape {
        }
      }
    }
  }
}
node {
  name: "global_step/cond/Switch_1"
  op: "Switch"
  input: "global_step/Initializer/zeros"
  input: "global_step/cond/pred_id"
  attr {
    key: "T"
    value {
      type: DT_INT64
    }
  }
  attr {
    key: "_class"
    value {
      list {
        s: "loc:@global_step"
      }
    }
  }
  attr {
    key: "_output_shapes"
    value {
      list {
        shape {
        }
        shape {
        }
      }
    }
  }
}
node {
  name: "global_step/cond/Merge"
  op: "Merge"
  input: "global_step/cond/Switch_1"
  input: "global_step/cond/read"
  attr {
    key: "N"
    value {
      i: 2
    }
  }
  attr {
    key: "T"
    value {
      type: DT_INT64
    }
  }
  attr {
    key: "_output_shapes"
    value {
      list {
        shape {
        }
        shape {
        }
      }
    }
  }
}
node {
  name: "global_step/add/y"
  op: "Const"
  attr {
    key: "_output_shapes"
    value {
      list {
        shape {
        }
      }
    }
  }
  attr {
    key: "dtype"
    value {
      type: DT_INT64
    }
  }
  attr {
    key: "value"
    value {
      tensor {
        dtype: DT_INT64
        tensor_shape {
        }
        int64_val: 0
      }
    }
  }
}
node {
  name: "global_step/add"
  op: "AddV2"
  input: "global_step/cond/Merge"
  input: "global_step/add/y"
  attr {
    key: "T"
    value {
      type: DT_INT64
    }
  }
  attr {
    key: "_output_shapes"
    value {
      list {
        shape {
        }
      }
    }
  }
}
node {
  name: "Const"
  op: "Const"
  device: "/device:CPU:0"
  attr {
    key: "_output_shapes"
    value {
      list {
        shape {
          dim {
            size: 5000
          }
          dim {
            size: 128
          }
        }
      }
    }
  }
  attr {
    key: "dtype"
    value {
      type: DT_INT32
    }
  }
  attr {
    key: "value"
    value {
      tensor {
        dtype: DT_INT32
        tensor_shape {
          dim {
            size: 5000
          }
          dim {
            size: 128
          }
        }
        tensor_content: "e\000\000\000\025\004\000\000\321\007\000\000\215\t\000\000\314\007\000\000\217\021\000\000\320\007\000\000l\010\000\000\347\007\000\000\021\023\000\000_\010\000\000\317\007\000\000\r\004\000\000\017/\000\000W\010\000\000\336\026\000\000\242\020\000\000\330\007\000\000\321\007\000\000\020\t\000\000@\010\000\000\315\007\000\000\314\007\000\000\002\023\000\000\326-\000\000E\022\000\000\315\007\000\000\362L\000\000\262\r\000\000\364\003\000\000\347\007\000\000\326-\000\000\366\007\000\000\r\004\000\000\356(\000\000n\"\000\000\236/\000\0005K\000\000\355\003\000\000\264\026\000\000\364\007\000\000\017/\000\000W\010\000\000\336\026\000\000\363\003\000\000\363\003\000\000\330\007\000\000\321\007\000\000=\010\000\000\320\007\000\000\2011\000\000\314\007\000\000\355\020\000\000P\014\000\000\315\007\000\000\314\007\000\000j\010\000\000\364\003\000\000\002\004\000\0003\037\000\000\365\003\000\000\004\004\000\000\002\004\000\0003\037\000\000\365\003\000\000\004\004\000\000\t\010\000\000\344\007\000\000\206L\000\000\206\t\000\000\320\007\000\000\357\007\000\000\335\032\000\000\314\t\000\000\362\003\000\000\r\004\000\000I\014\000\000\313\014\000\000\317\007\000\000\314\007\000\000\310\010\000\000\244\030\000\000\315\007\000\000\355\020\000\000P\014\000\000\334\007\000\000\314\007\000\000\356(\000\000n\"\000\000\236/\000\0005K\000\000\\\n\000\000\r\031\000\000\215\010\000\000\316\007\000\000\363[\000\0001$\000\000\226,\000\000\320\007\000\000\314\007\000\000O\013\000\000\326\007\000\000\314\007\000\000_\010\000\000\364\003\000\000\314\007\000\000\374\027\000\000\321\007\000\000\r\004\000\000\355\013\000\000\353\016\000\000!\016\000\000\324\027\000\000\315\007\000\000\314\007\000\000\r\027\000\000A3\000\000\033\010\000\000\247s\000\000\205\023\000\000\316\007\000\000\314\007\000\000\234\013\000\000\375\014\000\000\321\007\000\000\r\004\000\000\020\t\000\000f\000\000\000e\000\000\000\025\004\000\000\016\r\000\000R\016\000\000\347\007\000\000\324\007\000\000\r\004\000\000\327\n\000\000\317\007\000\000\314\007\000\0002\013\000\000\362\003\000\000\361\007\000\000[\031\000\000t+\000\000.\025\000\000\333\007\000\000\314\007\000\000\242\t\000\000\316\007\000\000\203*\000\000g8\000\000\355\003\000\000\037\004\000\000#S\000\000\364\003\000\000\t\010\000\000\004\010\000\000\017\013\000\000\007\010\000\000\302\t\000\000\032\013\000\000\334\007\000\000\"\010\000\000\314\007\000\000\347\010\000\000j\010\000\000\364\003\000\000\025\004\000\000*\026\000\000\314\007\000\000\227!\000\000\325\007\000\000\314\007\000\000\362\007\000\000\230\022\000\000\344\007\000\000\031\020\000\000\364\003\000\000\347\007\000\000\323\007\000\000\253\014\000\000h\r\000\000\314\007\000\000\216\010\000\000\'\010\000\000)\036\000\000\244\021\000\000\212\010\000\000\276\n\000\000\314\007\000\000\303\n\000\000\353\007\000\000\342\007\000\000\320\007\000\000\305\013\000\000\314\007\000\000\242\t\000\000+\010\000\000\320\007\000\000\314\007\000\000#\027\000\000\353\007\000\000\302\014\000\000\320\007\000\0001\025\000\000\r\010\000\000|\010\000\000\364\003\000\000\006\010\000\000\323\007\000\000\363\026\000\000\323\007\000\000\330\007\000\000\314\007\000\000)\035\000\000\315\007\000\000\215\016\000\000\316\007\000\000w\010\000\000\020\014\000\000\344\007\000\000\221O\000\000h\n\000\000\350\007\000\000\213\020\000\000\037\023\000\000J\013\000\000\r\016\000\000\224q\000\000.\025\000\000\324\007\000\000;\010\000\000\333\007\000\000\351\022\000\000\364\003\000\000\314\007\000\000\212\010\000\000nL\000\000\314\007\000\000\275)\000\000*\010\000\000\331\017\000\000\2178\000\000\200\031\000\000\316\007\000\000\314\007\000\000Y\010\000\000I-\000\000\362\003\000\000\314\007\000\000\342\027\000\000\315\007\000\000\216\t\000\000-\016\000\000\326\007\000\000\314\007\000\000f\000\000\000e\000\000\000\025\004\000\000\032\017\000\000\314\007\000\0005\n\000\000J,\000\000\332\t\000\000j\034\000\000\356\003\000\0002\017\000\000\363\003\000\000s\016\000\000\357\003\000\000\331\007\000\000\323\007\000\000\235\010\000\000g\013\000\000\330\007\000\000\3746\000\000\211\034\000\000\366\007\000\000\343\n\000\000\320\007\000\000\346\007\000\000\004\031\000\000\316\007\000\000\351\007\000\000\177\016\000\000\364\003\000\000\340\007\000\000\321\007\000\000\265\031\000\000\317\007\000\000\314\007\000\000\331\010\000\000\364\003\000\000\315\007\000\000/\n\000\000\263\022\000\000\2126\000\000\321\007\000\000\003\t\000\000\324\007\000\000,\010\000\000\324\007\000\000\024\020\000\000a(\000\000\364\003\000\000\025\004\000\000\032\017\000\000\331\007\000\000\373\007\000\000\322\007\000\000z\010\000\000\2605\000\000{0\000\000\211\013\000\000\3023\000\000\226\021\000\000\364\003\000\000\025\004\000\000\357\007\000\000<\020\000\000q\010\000\000\025\004\000\000\326\007\000\000f\023\000\000\316\007\000\000\025\004\000\000e\016\000\000\304\r\000\000\320\007\000\000e\023\000\000l\016\000\000\370\003\000\000\363\003\000\000\374\003\000\000\364\003\000\000\021\010\000\000\025\010\000\000\375\007\000\000\004\010\000\000\346\007\000\000\016\010\000\000\371\013\000\000\326\007\000\000\363\t\000\000\022\010\000\000\347\007\000\000\354\007\000\000\362\003\000\000q\n\000\000\004\010\000\000\346\007\000\000\270\t\000\000\364\003\000\000\347\007\000\000\331\010\000\000$\n\000\000\254\022\000\000\317\007\000\000\314\007\000\000=\n\000\000\315\007\000\000O\n\000\000\345\007\000\000\013\010\000\000+\025\000\000\364\003\000\000S\n\000\000\032N\000\000\363\007\000\000\314\007\000\000A\036\000\000D\t\000\000\315\007\000\000\314\007\000\000\203\r\000\000\316\007\000\000\313\r\000\000\362\003\000\000\256\010\000\000Xd\000\000a\t\000\000\211\034\000\000\362\003\000\000\217\010\000\000f\000\000\000e\000\000\000\350\003\000\000\006\013\000\000q\026\000\000\242\t\000\000\350\003\000\000\323\007\000\000\354\007\000\000\315\007\000\000\314\007\000\000\'\010\000\000\035\031\000\000\303\020\000\000\302\020\000\000P\014\000\000\025\004\000\000\357\007\000\000l\t\000\000\240\t\000\000\364\003\000\000\331\007\000\000\355\003\000\000\037\004\000\000\r\004\000\000+ \000\000:\022\000\000\315\007\000\000\031\027\000\000\362\003\000\000\306\017\000\000\362\003\000\0000\035\000\000\362\003\000\000]\025\000\000\316\007\000\000Q\036\000\000\030\013\000\000\364\003\000\000\314\007\000\000_\010\000\000\366\007\000\000\026\010\000\000\007\033\000\000}h\000\000\316\007\000\000\035\031\000\000v%\000\000\364\003\000\000\025\004\000\000\365\010\000\000n\013\000\000\314\007\000\000\212\013\000\000\250\r\000\000*\010\000\000n\"\000\000\213\023\000\000\316\007\000\000\314\007\000\000@\r\000\000B\026\000\000@\021\000\000\364\003\000\000\365\025\000\000\202\t\000\000\316\007\000\000\016j\000\000_\010\000\000\316\007\000\000\202\010\000\000\265\036\000\000\030(\000\000\231\023\000\000\355\003\000\000\037\004\000\000\252\013\000\000 2\000\000\364\003\000\000f\000\000\000\000\000\000\000\000\000\000\000\000\000\000\000\000\000\000\000\000\000\000\000\000\000\000\000\000\000\000\000\000\000\000\000\000\000\000\000\000\000\000\000\000\000\000\000\000\000\000\000\000\000\000\000\000\000\000\000\000\000\000\000\000\000\000\000\000\000\000\000\000\000\000\000\000\000\000\000\000\000\000\000\000\000\000\000\000\000\000\000\000\000\000\000\000\000\000\000\000\000\000\000\000\000\000\000\000\000\000\000\000\000\000\000\000\000\000\000\000\000\000\000\000\000\000\000\000\000\000\000\000\000\000\000\000\000\000\000\000\000\000\000\000\000\000\000\000\000\000\000\000\000\000\000\000\000\000\000\000\000\000\000\000\000\000\000\000\000\000\000\000\000\000\000\000\000\000\000\000\000\000\000\000\000\000\000\000\000\000\000\000\000\000\000\000\000\000\000e\000\000\000\347\007\000\000q\014\000\000\023\t\000\000\351\007\000\000\346\007\000\000m\033\000\000w\023\000\000\341\007\000\000\350\007\000\000k\n\000\000\320\007\000\000\036\014\000\000J\021\000\000\364\003\000\000\025\004\000\000\264\010\000\000\347\007\000\000q\014\000\000\027\010\000\000}\013\000\000b\r\000\000a\026\000\000G\020\000\000\325\017\000\000\364\003\000\000\314\007\000\000<\t\000\000\246\r\000\000\350\007\000\000\314\007\000\000#\004\000\000n)\000\0004\010\000\000\320\t\000\000\363\003\000\000\022\025\000\000%\023\000\000\362\003\000\000\320\032\000\000\362\003\000\000\332\007\000\000\215o\000\000\213\016\000\000\362\003\000\000\037\023\000\000\233\017\000\000\036I\000\000\373\021\000\000q\031\000\000\362\003\000\000\340\035\000\000\362\003\000\000\r\004\000\000\037\010\000\000X\037\000\000\317\007\000\000q\t\000\000\254#\000\000\370\007\000\000\036=\000\000\342\013\000\000\024\r\000\000\362\003\000\000\317A\000\000\362\003\000\000\r\004\000\000h\037\000\000\337\t\000\000\353V\000\000\362\003\000\000\305\033\000\0004\010\000\0003\n\000\000\370\007\000\000\323\007\000\000\253\017\000\000\320\007\000\000\346\007\000\000\350\003\000\0002\022\000\000\350\003\000\000\316\007\000\000\366\007\000\000\005\010\000\000`\014\000\000\315\007\000\000Q\010\000\000\320\007\000\000\031\021\000\000\362\003\000\000\316\007\000\000\336\007\000\000\351=\000\0000(\000\0002\010\000\000\362\032\000\000L\020\000\000\362\003\000\000\343\007\000\000V\t\000\000\3402\000\000\370\007\000\000\020\010\000\000\217\010\000\000\343\007\000\000\261\035\000\000\245a\000\000\307\r\000\000\371\007\000\000\315\007\000\000\311\t\000\000\364\003\000\000\005\010\000\000\362\003\000\000\025\004\000\000\355\003\000\000\031\004\000\000\351\007\000\000\r\004\000\000\006\n\000\000\352A\000\000\362\003\000\000\330\007\000\000\355\003\000\000\037\004\000\000|\t\000\000f\000\000\000e\000\000\000\025\004\000\000S\010\000\000R\025\000\000\315\007\000\000\352\007\000\000\372\003\000\000\316\007\000\000\373\003\000\000/\010\000\000\246\010\000\000_\026\000\000\317\036\000\000<\010\000\000\3344\000\000\320\007\000\000^\r\000\000NQ\000\000\362\003\000\000\345\030\000\000\316\007\000\000\314\007\000\000\022\010\000\000\364\003\000\000\331\007\000\000\363\007\000\000\t\017\000\000\320\007\000\000\346\007\000\000\314\007\000\000x\010\000\000\246\010\000\000R\025\000\000u6\000\000P\010\000\000e:\000\000p#\000\000\n\010\000\000\316\007\000\000\n\010\000\000i\010\000\000\364\003\000\000\373\007\000\000\352\007\000\000_\026\000\000\261\t\000\000\355\003\000\000 \004\000\000\177\010\000\000\320\007\000\000\314\007\000\000]\020\000\000\347\007\000\000\243\023\000\000Z\010\000\000\354\007\000\000\315\007\000\000\024\010\000\000\321\007\000\000\271\024\000\000\362\003\000\000\025\004\000\0007\t\000\000\024\010\000\000\320\007\000\000\032\010\000\000\013%\000\000\316\007\000\000\235\n\000\000\325\007\000\000\r\004\000\0000\010\000\000\364\003\000\000\025\004\000\000\215$\000\000\314\007\000\000\206\n\000\000\326\007\000\000\316\007\000\000\317\007\000\000\257\031\000\000\325\007\000\000\302\010\000\000?\t\000\000\362\003\000\000\025\004\000\000\215$\000\000\314\007\000\000\261\032\000\000\364\003\000\000\352\007\000\000\370\020\000\000\326\013\000\000M\014\000\000\377M\000\000\314\007\000\0009\n\000\000\025\004\000\000a\n\000\000\026\036\000\000\355\003\000\000\037\004\000\000H\t\000\000\364\003\000\000\025\004\000\000\214\022\000\0006\026\000\000\370\010\000\000\005\t\000\000\0148\000\000\326\t\000\000\347\007\000\000n\010\000\000\366\007\000\000\035\n\000\000\316\007\000\000\373\007\000\000\025\004\000\000S\t\000\000\330\007\000\000\322\007\000\000\321\007\000\000\245\n\000\000H\t\000\000\363\003\000\000\n\010\000\000c\010\000\000f\000\000\000e\000\000\000\314\007\000\000\324\t\000\000\366\007\000\000D\010\000\000\027<\000\000\363\003\000\000\314\007\000\000\252 \000\000\036\016\000\000\362\003\000\000\031\010\000\000N\027\000\000\316\007\000\000Y`\000\000j\n\000\000Wh\000\000\350\007\000\000\335\017\000\000\371\007\000\000\362\003\000\000\r\004\000\000\246\023\000\000\036\016\000\000\362\003\000\000\031\010\000\000\036L\000\0003\026\000\000\217\035\000\000\316\007\000\000\256\013\000\0003\026\000\000\332\007\000\000\2244\000\0001\010\000\000\346\007\000\000\n\010\000\000\316\007\000\000\314\007\000\000b\r\000\000\315\007\000\000\314\007\000\000&\021\000\000\362\003\000\000\r\004\000\000\036\016\000\000\363\003\000\000\022\010\000\000\350L\000\000\330\007\000\000\315\013\000\000u\017\000\000\036L\000\000\324\007\000\000\r\004\000\000\365\010\000\000\004K\000\000\364\003\000\000\002\004\000\0003\037\000\000\365\003\000\000\004\004\000\000\002\004\000\0003\037\000\000\365\003\000\000\004\004\000\000\350\010\000\000b\n\000\000\267(\000\000\362\003\000\000?\026\000\000\231\025\000\0003\037\000\000\r^\000\000\362\003\000\000\321\007\000\000\215\t\000\000\332\007\000\000\223\n\000\000\317\007\000\000P\014\000\000\333\007\000\000\010\030\000\000\251L\000\000\317\007\000\000\350\003\000\000\314\007\000\000\036\016\000\000\350\003\000\000\364\003\000\000\r\004\000\000\230\010\000\000b\t\000\000\247\022\000\000}\021\000\000\362\003\000\000\370\007\000\000\315\010\000\000\326\007\000\000\320\007\000\000\357\007\000\000;\010\000\000\r\004\000\000b\010\000\000\254\t\000\000\317\007\000\000;\026\000\000\362\003\000\000\260\014\000\000x\017\000\000\332\t\000\000Q;\000\0004\010\000\000\362\003\000\000\370\007\000\000\005,\000\000\314\007\000\000\247\014\000\000\315\007\000\000\r\004\000\000\244\r\000\0003\n\000\000\362\003\000\000\036L\000\000\356\003\000\000\220K\000\000\346\t\000\000f\000\000\000e\000\000\000\t\010\000\000\355\003\000\000P\010\000\000\003\r\000\000\007\010\000\000\r\004\000\000c\n\000\000.\024\000\000_\010\000\000\362\003\000\000\316\007\000\000\331\007\000\000\355\003\000\000\037\004\000\000\351\014\000\000\r\014\000\000\330\007\000\000\375\007\000\000\350\007\000\000\026\010\000\000\017U\000\000\356\003\000\000\005\010\000\000\312k\000\000\361\t\000\000\000\004\000\000\354\007\000\000\305\025\000\000\3109\000\000S\032\000\000\316\007\000\000\354\007\000\000 b\000\000\3359\000\000\357\003\000\000\001\004\000\000\345\007\000\000\317\007\000\000\274\010\000\000\314\007\000\000\242\t\000\000\342\036\000\000\341\007\000\000[\022\000\000\362\003\000\000\'\010\000\000\315\007\000\000\314\007\000\000\246\r\000\000\350\007\000\000\366\025\000\000`\013\000\000\214\r\000\000\316\007\000\000\375\007\000\000\350\007\000\000\026\010\000\000\202\t\000\000\322\037\000\000\364\003\000\000\002\004\000\0003\037\000\000\365\003\000\000\004\004\000\000\002\004\000\0003\037\000\000\365\003\000\000\004\004\000\000\025\004\000\000|\t\000\000\022\010\000\000P\014\000\000\330\007\000\000z\021\000\000\341\007\000\000\327\007\000\000\026\010\000\000?\010\000\000\330\007\000\000\350\007\000\000\351\007\000\000\370\007\000\000\353\007\000\000\247\010\000\000\341\007\000\000\320\007\000\000W\013\000\000\316\007\000\000\013\010\000\000@&\000\000\316\007\000\000\257\n\000\000\314\007\000\000<\025\000\000\364\003\000\000\364\003\000\000\364\003\000\000\025\004\000\000\307(\000\000\222C\000\000.\010\000\000\347\007\000\000\354\007\000\000\326\007\000\000\330\007\000\000\364\003\000\000\002\004\000\0003\037\000\000\365\003\000\000\004\004\000\000\002\004\000\0003\037\000\000\365\003\000\000\004\004\000\000\021\010\000\000\341\007\000\000A\010\000\000\006\010\000\000\025\004\000\000\374\n\000\000\362\003\000\000\346\013\000\000\320\007\000\000l\010\000\000\364\007\000\000\350\003\000\000f\000\000\000e\000\000\000\021\010\000\000\341\007\000\000\247\010\000\000B\033\000\000\356\007\000\000\311\t\000\000\022\010\000\000\314\007\000\000\306\t\000\000\363\003\000\000\264\013\000\000]\025\000\000\277\017\000\000\330\007\000\000\t\010\000\000S\010\000\000D\014\000\000\326\007\000\000e\010\000\000J\010\000\000t\t\000\000K\010\000\000\355\003\000\000 \004\000\000|!\000\000\364\003\000\000\347\007\000\000,\010\000\000\363\003\000\000\325\t\000\000_\010\000\000i\013\000\000\361\007\000\000\367\007\000\000\251\014\000\000\007\010\000\000\363\007\000\000\331\007\000\000\342\007\000\000\320\007\000\0008\t\000\000\364\003\000\000M\024\000\000\315\007\000\000\245)\000\000\317\007\000\000\320\010\000\000\304\014\000\000\320\007\000\000\217\010\000\000\331\007\000\000\217\010\000\000`\014\000\000\362\003\000\000Q\010\000\000 \t\000\000\261E\000\000\314\007\000\000(\010\000\000\356\003\000\000\316\007\000\000\314\007\000\000\310\022\000\000\317\007\000\000\331\007\000\000\357\003\000\000\362\003\000\000\320\010\000\000\267\n\000\000\007d\000\000\033\010\000\000\315\007\000\000\314\007\000\000\314\017\000\000\316\007\000\000\375F\000\000\315\007\000\000\001\010\000\000M\t\000\000\316\007\000\000\021%\000\000\364\003\000\000\364\003\000\000\363\007\000\000\206\010\000\000\362\003\000\000\345\007\000\000\351\007\000\000\347^\000\000\326\007\000\000\314\007\000\000\346\014\000\000\364\003\000\000\341\007\000\000\027\010\000\000\214*\000\000_\n\000\000\331\007\000\000\r\004\000\000\350\003\000\000\267\027\000\000q\014\000\000\350\003\000\000R\010\000\000\367\010\000\000\314\007\000\000\355J\000\000\321\020\000\000\233\017\000\000\323\t\000\000\351\007\000\000\232\010\000\000\346\r\000\000\201\t\000\000O\010\000\000\314\007\000\000\233\010\000\000\362\003\000\000\316\007\000\000\013\010\000\000\331\007\000\000\355\003\000\000\037\004\000\000R\010\000\000\367\007\000\000\320\007\000\000f\000\000\000e\000\000\000\352\020\000\000\"\t\000\000\316\007\000\000\3454\000\000\321\007\000\000\237\010\000\000\317\007\000\000\355\010\000\000\005\017\000\000\316\007\000\000\026\013\000\000\314\t\000\000B\027\000\000\362\003\000\000\253\023\000\000|L\000\000\362\003\000\000\256\013\000\000A\r\000\000\311_\000\000\364\003\000\000\316\007\000\000-9\000\00012\000\000\357\r\000\000I\026\000\000\364\003\000\000\347\007\000\000_\010\000\000\342\007\000\000\314\t\000\000B\027\000\000\316\007\000\000\253\023\000\000|L\000\000\317\007\000\000\365\007\000\000E\010\000\000\326\007\000\000\363\003\000\000:\017\000\000\372X\000\000\356\003\000\000\374\007\000\000\314\007\000\000\010\030\000\000\251L\000\000V\021\000\000Vn\000\000\362\003\000\000\237\010\000\000\341\013\000\000\314\007\000\000x\010\000\000/\010\000\000\357\003\000\000\364\003\000\000\347\007\000\000\321\007\000\000B\027\000\000\355\003\000\000\037\004\000\000\225\010\000\000_\010\000\000\324\007\000\000\r\004\000\000\232\030\000\000\'\n\000\000\324\007\000\000\322\007\000\000\321\007\000\000\245 \000\000\235\010\000\000\246\010\000\000\334\007\000\000\357\010\000\000\301\n\000\000\320\007\000\000I\t\000\000\330\007\000\000\342\017\000\000\315\007\000\000@\010\000\000&\023\000\000\364\003\000\000\314\007\000\000q\014\000\000\323\007\000\000\007\010\000\000\r\004\000\0005\033\000\000\241\010\000\000\333\007\000\000\253\023\000\000|L\000\000\370\007\000\000\323\007\000\000\230\030\000\000\320\007\000\000\r\004\000\000I&\000\000\241\010\000\000\333\007\000\000\314\t\000\000B\027\000\000\364\003\000\000\340\007\000\000=!\000\000\r\004\000\000\231\030\000\000\326\007\000\000\360\007\000\000\316\007\000\000\322\007\000\000t\020\000\000T\010\000\000\n\010\000\000I \000\000\317\007\000\000\365\010\000\000\327\007\000\000\336\007\000\000\364\003\000\000\025\004\000\000\000\026\000\000\314\007\000\000f\000\000\000e\000\000\000\337=\000\000\037\010\000\000\025\004\000\000l\t\000\000\227\037\000\000\r\004\000\000_\010\000\000\r\010\000\000\336\014\000\000BT\000\000\330\007\000\000\025\004\000\000\212\t\000\000\201\016\000\000\007\010\000\000\331\007\000\000\202\014\000\000\364\003\000\000\347\007\000\000q\014\000\000\323\007\000\000\237\026\000\000\026\010\000\000\315\007\000\000\314\007\000\000\262(\000\000\270\017\000\000\360\n\000\000\316\007\000\000\331\007\000\000\323\007\000\000\343\016\000\000\2058\000\000\364\003\000\000\025\004\000\000\347\013\000\000\320\007\000\000l\010\000\000\314\007\000\000\344#\000\000\360\t\000\000\345\007\000\000\025\004\000\000\355\003\000\000\031\004\000\000\326\007\000\000\352\007\000\000N\010\000\000m\010\000\000%\010\000\000\320\007\000\000C\032\000\000\314\007\000\000f\023\000\000P\010\000\000\002\"\000\000\327\007\000\000\202\t\000\000\006\013\000\000.\037\000\000\364\003\000\000a\010\000\000\362\003\000\000\314\007\000\000\2032\000\000\350(\000\000V\010\000\000\355\003\000\000 \004\000\000S\010\000\000\317\007\000\000\314\007\000\000N\010\000\000\316\007\000\000\007\013\000\000\320\013\000\000\026\010\000\000#\026\000\000\251\027\000\000;C\000\000\000\004\000\000\350\003\000\000\333&\000\000\302\030\000\000u\026\000\000\314\007\000\000(\010\000\000\347\003\000\000\347\003\000\000\347\003\000\000\350\003\000\000\002\004\000\0003\037\000\000\365\003\000\000\004\004\000\000\002\004\000\0003\037\000\000\365\003\000\000\004\004\000\000\314\007\000\000\242\t\000\000\363\003\000\000!\020\000\000\315/\000\000\263\013\000\000\320\007\000\000\006\013\000\000u\022\000\000\315\007\000\000.N\000\000\333k\000\000\362\003\000\000A]\000\000\362\003\000\000\316\007\000\000:\033\000\000\363\003\000\000_\014\000\000\226\031\000\000\364\003\000\000\341\007\000\000\020\010\000\000c\027\000\000\276S\000\000\316\007\000\000\354\020\000\000f\000\000\000e\000\000\000\202\030\000\000\005\024\000\000LP\000\000\323\007\000\000\r\004\000\000q\014\000\000\341\007\000\000\237\026\000\000&\t\000\000\320\007\000\000l\010\000\000\364\003\000\000\331\007\000\000\321\007\000\000\230\010\000\000\354\t\000\000C\t\000\000\316\007\000\000\342\007\000\000\r\004\000\000\033\013\000\000\315\007\000\000r!\000\000\330\007\000\0008\020\000\000\341\007\000\000\267!\000\000m\010\000\000\317\007\000\000\364\003\000\000\331\007\000\000\323\007\000\000\r\010\000\000|\010\000\000\022\010\000\0005\n\000\000v\010\000\000\327\007\000\000\006\010\000\000l2\000\000\357\007\000\000\320\007\000\000\177\010\000\000#\010\000\000\364\003\000\000\005\024\000\000\362\003\000\000\r\004\000\000\243a\000\000\362$\000\000\362\003\000\000\345\007\000\000\327\007\000\000\r\004\000\000\234\010\000\000\354\t\000\000\334\007\000\000\314\007\000\000\233\010\000\000\270#\000\000\327\007\000\000\365\010\000\000\317\007\000\000\363\007\000\000\314\007\000\000m\010\000\000n\014\000\000\355\033\000\000\327\007\000\000\361\013\000\000\316\007\000\000k\010\000\000\364\003\000\000\334\007\000\000\314\007\000\000\233\010\000\000\005\024\000\000\365\'\000\000\314\007\000\000\263\013\000\000\366\r\000\000\315\007\000\000\365\010\000\000\374\007\000\000\355\033\000\000\327\007\000\000\r\004\000\000\246\010\000\000]4\000\000\335\033\000\000\316\007\000\000\r\004\000\0003\n\000\000\370\007\000\000\322\007\000\000\032\020\000\000\320\007\000\000\260\010\000\000\323\007\000\000}\013\000\000\256\t\000\000\360\007\000\000\235\010\000\000\364\003\000\000\025\004\000\000sA\000\000?\010\000\000\320\007\000\000^\r\000\000\347\007\000\000q\014\000\000Z\010\000\000\331\007\000\0001\010\000\000\346\007\000\000\022\010\000\000\341\007\000\000\350\007\000\000R\016\000\000\r\004\000\0005\n\000\000k\010\000\000\364\003\000\000\330\007\000\000\337\007\000\000Q\010\000\000f\000\000\000e\000\000\000,\010\000\000\362\003\000\000\025\004\000\000\340\010\000\000\335\007\000\000\177\037\000\000\031\010\000\000\331\007\000\000\355\003\000\000\037\004\000\000\247\t\000\000\217\024\000\000\320\007\000\000\357\007\000\000\r\004\000\000X,\000\000\345\007\000\000\352\007\000\000\257%\000\000(\020\000\000\361\007\000\000\320\007\000\000\346\007\000\000\350\003\000\000\230\010\000\000\362\003\000\000\230\010\000\000d\021\000\000\350\003\000\000\347\003\000\000\347\003\000\000\347\003\000\000\347\007\000\0004\014\000\000\356\003\000\000\276\035\000\000S\t\000\000\002\010\000\000\357\003\000\000\366\007\000\000\035\n\000\000\r\004\000\000\003\t\000\000!\014\000\000\327\007\000\000\347\007\000\000q\014\000\000\347\003\000\000\025\004\000\000K\010\000\000\355\003\000\000 \004\000\000A\010\000\000\017\016\000\000Q\010\000\000\246\010\000\000\322\007\000\000\321\007\000\000\345\007\000\000\322\007\000\000V\010\000\000\355\003\000\000 \004\000\000\370\t\000\000\022\010\000\000\r\004\000\000\327\n\000\000\356\003\000\000,\010\000\000\035\n\000\000\357\003\000\000\347\003\000\000%\010\000\000\007\010\000\000\314\007\000\000X,\000\000\363\003\000\000\331\007\000\000+\t\000\000\355\003\000\000 \004\000\000\230\010\000\000\2211\000\000\345\007\000\000ne\000\000\364\027\000\000\341\007\000\000\347\003\000\000\021\010\000\000\341\007\000\000\247\010\000\000\320\007\000\000\357\007\000\000\r\004\000\000\373\016\000\000\003\010\000\000\317\007\000\000X\t\000\000\315\007\000\000\314\007\000\000y\t\000\0004\010\000\000\363\003\000\000\347\007\000\000\323\007\000\000\314\007\000\000q\014\000\000\347\003\000\000f\000\000\000\000\000\000\000\000\000\000\000\000\000\000\000\000\000\000\000\000\000\000\000\000\000\000\000\000\000\000\000\000\000\000\000\000\000\000\000\000\000\000\000\000\000\000\000\000\000\000\000\000\000\000\000\000\000\000\000\000\000\000\000\000\000\000\000\000\000\000\000\000\000\000\000e\000\000\000\r\004\000\000\253?\000\000\031\027\000\000(\010\000\000\327\007\000\000hU\000\000P>\000\000\246\r\000\000\316\007\000\000W=\000\000\272\016\000\000\355\003\000\000\037\004\000\000\215\010\000\000\364\003\000\000\347\007\000\000^\023\000\000\344&\000\000\350\020\000\000\366+\000\000\314\007\000\000\272\016\000\000\355\003\000\000\037\004\000\000\270\022\000\000\320\007\000\000P\010\000\000\005g\000\000\243\"\000\000\322\033\000\000\316\007\000\000\217\010\000\000\331\021\000\000\315\007\000\000Q\010\000\000\353\007\000\000c\010\000\000\364\003\000\000\"\036\000\000\025\004\000\000=\022\000\000\221<\000\000?)\000\0001\033\000\000\316\007\000\000\314\007\000\000\014\010\000\000\321 \000\000I\010\000\000\246\r\000\000\364\003\000\000\353\007\000\000\342\007\000\000\026\010\000\000\315\007\000\000\314\007\000\000\016\010\000\000\306J\000\000\212\014\000\000\364\003\000\000f\000\000\000\000\000\000\000\000\000\000\000\000\000\000\000\000\000\000\000\000\000\000\000\000\000\000\000\000\000\000\000\000\000\000\000\000\000\000\000\000\000\000\000\000\000\000\000\000\000\000\000\000\000\000\000\000\000\000\000\000\000\000\000\000\000\000\000\000\000\000\000\000\000\000\000\000\000\000\000\000\000\000\000\000\000\000\000\000\000\000\000\000\000\000\000\000\000\000\000\000\000\000\000\000\000\000\000\000\000\000\000\000\000\000\000\000\000\000\000\000\000\000\000\000\000\000\000\000\000\000\000\000\000\000\000\000\000\000\000\000\000\000\000\000\000\000\000\000\000\000\000\000\000\000\000\000\000\000\000\000\000\000\000\000\000\000\000\000\000\000\000\000\000\000\000\000\000\000\000\000\000\000\000\000\000\000\000\000\000\000\000\000\000\000\000\000\000\000\000\000\000\000\000\000\000\000\000\000\000\000\000\000\000\000\000\000\000\000\000\000\000\000\000\000\000\000\000\000\000\000\000\000\000\000\000\000\000\000\000\000\000\000\000\000\000\000\000\000\000\000\000\000\000\000\000\000\000\000\000\000\000\000\000\000\000\000\000e\000\000\000\367\007\000\000O\010\000\000\314\007\000\000\021\021\000\000\316\007\000\000\225\010\000\000\350\n\000\000\315\007\000\000\314\007\000\000\254\n\000\000q\024\000\000\0300\000\000\362\003\000\000\355\007\000\000I\n\000\000\024\014\000\000\317\007\000\000P\t\000\000\362\003\000\000\025\004\000\000\342\007\000\000\243\t\000\000\306\010\000\000\334\007\000\000\347\007\000\000d\014\000\000[\021\000\000\324\007\000\000\352\007\000\000@\025\000\000_\010\000\000\315\007\000\000\314\007\000\000b\010\000\000\363\003\000\000\322\n\000\000\212\010\000\000\364\003\000\000\314\007\000\000\322$\000\000O\013\000\000\233\023\000\000\316\007\000\000|\t\000\000?\t\000\000\246\r\000\000\356\003\000\000\007:\000\000\216W\000\000\314\007\000\000\0321\000\000\362\003\000\000\366o\000\000++\000\000\241\034\000\000\362\003\000\000!\021\000\000\364\003\000\000\357\003\000\000!\010\000\000\347\007\000\000\r\004\000\000?\r\000\000\204>\000\000q\014\000\000\364\003\000\000\002\004\000\0003\037\000\000\365\003\000\000\004\004\000\000\002\004\000\0003\037\000\000\365\003\000\000\004\004\000\000@\017\000\000\315\007\000\000\314\007\000\000O\013\000\000l\t\000\000p\020\000\000\235\010\000\000b\010\000\000\317\007\000\000\354\007\000\000z\017\000\000\362\003\000\000!\n\000\000\364\003\000\000\314\007\000\000\225\010\000\000\177\t\000\000j\014\000\000.\022\000\000\351\031\000\000\267`\000\000@7\000\000\347\007\000\000\314\007\000\000\'\010\000\000\324\007\000\000\314\007\000\000\250\r\000\0004>\000\000\370\010\000\000\325\010\000\000\335\n\000\000\335\007\000\000\314\007\000\000\201\024\000\000\320\007\000\000\314\007\000\000U\n\000\000z\t\000\000~\n\000\000\207\016\000\000\320\007\000\000\314\007\000\000\301\014\000\000\262#\000\000\363\003\000\000\2107\000\000*\010\000\000\353\024\000\000\200\016\000\000Ui\000\000\316\007\000\000f\000\000\000e\000\000\000\025\004\000\000\027\010\000\000\351\007\000\000W\013\000\000Q\010\000\000\253%\000\000\347\007\000\000_\010\000\000\321\007\000\000\001\004\000\000\025\004\000\000|\031\000\000^\r\000\000\335\014\000\000\206\n\000\000\362\003\000\000\345\007\000\000\305\010\000\000\350\003\000\000,\010\000\000\362\003\000\0002/\000\000.E\000\000\244W\000\000\323\007\000\000\243\t\000\000\264\020\000\000R\016\000\000\350\003\000\000\364\003\000\000\025\004\000\000\241\014\000\000;4\000\000\364\003\000\000\377\013\000\000h\013\000\000\023\t\000\000\346\007\000\0009\026\000\000\365\007\000\000!\022\000\000\317\007\000\000\373$\000\000\364\003\000\000\002\004\000\0003\037\000\000\365\003\000\000\004\004\000\000\002\004\000\0003\037\000\000\365\003\000\000\004\004\000\000\025\004\000\000\006\025\000\000\375\007\000\000\350\007\000\000\351\007\000\000\r\004\000\000\033\013\000\000\315\007\000\000\003\t\000\000+\021\000\000\325\007\000\000\004\t\000\000\315\007\000\000\r\004\000\000\360\013\000\000\357\010\000\000\362\003\000\000\345\007\000\000\314\007\000\000\010\027\000\000\320\007\000\000\347\007\000\000\321\007\000\000\r\010\000\000\317\007\000\0006\\\000\000\362\003\000\000\250I\000\000\252C\000\000.\010\000\000\316\007\000\000\336!\000\000\226\020\000\000\255\013\000\000\330\007\000\000\025\004\000\000\014\n\000\000\257\021\000\000\331\007\000\000l\t\000\000\360\010\000\000\376\007\000\000\232\t\000\000\356\007\000\000\330\007\000\000\244\026\000\000\364\003\000\000.E\000\000\244W\000\000\305\010\000\000\340\007\000\000\027\010\000\000\217\010\000\000\r\004\000\000)\033\000\000\022\"\000\000\371\007\000\000\315\007\000\000\347\007\000\000\r\010\000\000,\013\000\000\355\003\000\000\037\004\000\000\274\021\000\000\364\003\000\000@\017\000\000\315\007\000\000\314\007\000\000\246\r\000\000\342\007\000\000\r\004\000\000\3056\000\000\334\025\000\000\315\007\000\000f\000\000\000e\000\000\000\037\010\000\000\341\007\000\000A\010\000\000\373\007\000\000\341\007\000\000\372\010\000\000\334\007\000\000C\010\000\000\002\014\000\000\315\007\000\000\246\010\000\000\362\003\000\000v\n\000\000\210\n\000\000%\026\000\000;\026\000\000\362\003\000\000\316\007\000\000\006\025\000\000\330\007\000\000\375\007\000\000\350\007\000\000\026\010\000\000\330\007\000\000\341\007\000\000\355\003\000\000\006\t\000\000\025\010\000\000\240\t\000\000\020\t\000\000\356\007\000\000\337\016\000\000\362\003\000\000\316\007\000\000\341\007\000\000\020\010\000\000\355\003\000\000 \004\000\000\016\r\000\000\021\010\000\000\353\007\000\000\355\003\000\000P\010\000\000\264\020\000\000\314\007\000\000\003\010\000\000\331\007\000\000B\014\000\000\320\007\000\000l\010\000\000\024\010\000\000\005\004\000\000\314\007\000\000\376\022\000\000\006\026\000\000\323\007\000\000\365\003\000\000\321\007\000\000\354\007\000\000\315\007\000\000\250\010\000\000P\014\000\000\001\004\000\000\025\004\000\000\203\010\000\000\331\007\000\000\362\003\000\000\351\007\000\000b\010\000\000\323\014\000\000\362\003\000\000\316\007\000\000\343\n\000\000\025\004\000\000\225\t\000\000\324\007\000\000,\010\000\000\313\t\000\000\331\007\000\000\r\004\000\0006\r\000\000\364\003\000\000\025\004\000\000\355\003\000\000\031\004\000\000\351\007\000\000\222\021\000\000\245\t\000\000\021\010\000\000\025\004\000\000\355\003\000\000\031\004\000\000O\r\000\000\327\007\000\000\352\007\000\000\257\014\000\000\364\003\000\000\364\003\000\000\364\003\000\000\326\007\000\000\354\007\000\000\220\010\000\000\362\003\000\000\314\007\000\000_\010\000\000\323\007\000\000|\t\000\000\362\003\000\000|\t\000\000g\013\000\000\362\003\000\000\326\007\000\000\314\007\000\000\014\010\000\000\362\003\000\000%\010\000\000\025\004\000\000\357\007\000\000\202\010\000\000\271\t\000\000\247\032\000\000\364\003\000\000\364\003\000\000\364\003\000\000F\r\000\000\362\003\000\000f\000\000\000e\000\000\000\025\004\000\000\355\003\000\000\031\004\000\000\351\007\000\000\r\004\000\000\031\020\000\000\254\n\000\000I(\000\000^\025\000\000\362\003\000\000\345\007\000\000\025\004\000\000\321\007\000\000\377\t\000\000\016\013\000\000\320\007\000\000\347\007\000\000\364\003\000\000\025\004\000\000\321\007\000\000\320I\000\000\333\007\000\000\314\007\000\000E\016\000\000\363\003\000\000\024\004\000\000\257I\000\000\3273\000\000\315\007\000\000\314\007\000\0000\033\000\000\362\003\000\000\001\010\000\000\356X\000\000\363\003\000\000F\033\000\000\364P\000\000\316\007\000\000+\027\000\000\363\003\000\000\3232\000\000\236\013\000\000\006\020\000\000\320\007\000\000\314\007\000\000I(\000\000\337\007\000\000\t\010\000\000\350\007\000\000=\010\000\000\320\007\000\000\364\003\000\000\002\004\000\0003\037\000\000\365\003\000\000\004\004\000\000\002\004\000\0003\037\000\000\365\003\000\000\004\004\000\000\025\004\000\000V\010\000\000\355\003\000\000 \004\000\000l\010\000\000\311\t\000\000\363\007\000\000\330\007\000\000\363\026\000\000\317\007\000\000\347\007\000\0005\021\000\000\364\003\000\000\025\004\000\000\203\010\000\000\314\007\000\000<\025\000\000\320\007\000\000\346\007\000\000:%\000\000o\032\000\000\316\035\000\000\370\013\000\000\316\007\000\000\241A\000\000\364\003\000\000\002\004\000\0003\037\000\000\365\003\000\000\004\004\000\000\002\004\000\0003\037\000\000\365\003\000\000\004\004\000\000\025\004\000\0001\010\000\0001\031\000\000\330\007\000\000\025\004\000\000:\010\000\000\022\010\000\000\026\010\000\000\315\007\000\000\314\007\000\000\027\013\000\000\232\t\000\000\363\003\000\000\314\007\000\000RQ\000\000\315\007\000\000\314\007\000\000\276\020\000\000\324\007\000\000\343\007\000\000\355\003\000\0002O\000\000\355\003\000\000{\t\000\000\201\014\000\000\320\007\000\000\371\007\000\000\213@\000\000\214\023\000\000\365\007\000\000\305m\000\000\270 \000\000f\000\000\000e\000\000\000\025\004\000\000\264\010\000\000\314\007\000\000\370\036\000\000Y\023\000\000\314\007\000\000\331\010\000\000<\010\000\000\002G\000\000\265\010\000\0004\010\000\000\350\007\000\000\r\004\000\000\242\013\000\000\235\010\000\000\007B\000\000\364\003\000\000\373\007\000\000\r\004\000\000\227\n\000\000\356\014\000\000\320\007\000\000^\r\000\000\r\004\000\000\206\n\000\000\331\010\000\000\362\003\000\000\006\010\000\000\323\t\000\000\322\007\000\000\372\010\000\000\371\007\000\000\325\007\000\000\005\004\000\000\331\007\000\000\323\007\000\000\320\007\000\000G\027\000\000\330\007\000\000\322\007\000\000\245/\000\000\r\004\000\000\331\010\000\000\362\003\000\000w\023\000\000\322\007\000\000\365\003\000\000\340\007\000\000\323\007\000\000\r\004\000\000X\030\000\000\356\007\000\000\r\004\000\000\227\n\000\000\370\007\000\000\364E\000\000\337\007\000\000\242\t\000\000\364\003\000\000\345\007\000\000\'\010\000\000\315\007\000\000e\010\000\000\350\007\000\000\351\007\000\000\r\010\000\000\316\007\000\000^\r\000\000\314\007\000\000\371\013\000\000\320\007\000\000\013%\000\000\316\007\000\000G\027\000\000\364\003\000\000\210\t\000\000p\010\000\000\323\007\000\000\343\007\000\000\204\036\000\000\331\010\000\000\320\007\000\000^\r\000\000\374\007\000\000O\t\000\000\r\004\000\000\n\014\000\000j\010\000\000\317\007\000\000\314\007\000\000\204\t\000\000\365\003\000\000\"\010\000\000\364\003\000\000\331\007\000\000\014\014\000\000\341\007\000\000\224\022\000\000\316\007\000\000\331\007\000\000\323\007\000\000\351\007\000\000\032\010\000\000r!\000\000\364\003\000\000\002\004\000\0003\037\000\000\365\003\000\000\004\004\000\000\002\004\000\0003\037\000\000\365\003\000\000\004\004\000\000\274\n\000\000\362\003\000\000\314\007\000\000\3541\000\000k\010\000\000\323\007\000\000\r\004\000\000\353\016\000\000k\010\000\000\362\003\000\000\r\004\000\000\r\032\000\000\rd\000\000f\000\000\000e\000\000\000\006\010\000\000\020\010\000\000\341\007\000\000\312\020\000\0008\t\000\000\007\010\000\000\r\004\000\000\331\010\000\000\315\007\000\000\347\007\000\000\322\'\000\000\005\004\000\000\350\003\000\000\314\007\000\000\276(\000\000\337\007\000\000\350\003\000\000\366\007\000\000?\032\000\000q\t\000\000\270n\000\000\363\t\000\000\324\007\000\000\t\010\000\000A\010\000\000\331\007\000\000\364\003\000\000\331\007\000\000\366\007\000\000\202\016\000\000\363\007\000\000\271\r\000\000\362\003\000\000\316\007\000\000\343\010\000\000\377\007\000\000\255\022\000\000\325\007\000\000\363\t\000\000L\037\000\000\364\003\000\000q\n\000\000\323\007\000\000ok\000\000\362\003\000\000\314\007\000\000\307\013\000\000\362\003\000\000\177&\000\000\362\003\000\000\316\007\000\000\325\007\000\000\361\007\000\000\362\003\000\000\'\010\000\000\315\007\000\000\363\007\000\000\362\003\000\000\314\007\000\000\274\016\000\000\364\003\000\000R\016\000\000\347\007\000\000\331\010\000\000\341\007\000\000\355\003\000\000\256\010\000\000x\t\000\000J\021\000\000U$\000\000\330\007\000\000J\010\000\000\246\r\000\000\350\007\000\000\351\007\000\0005\n\000\000\364\003\000\000\314\007\000\000\274\016\000\000\301/\000\000\341\007\000\000\376\007\000\000\251\014\000\000\375\007\000\000\323\007\000\000\r\004\000\0005\n\000\000\024\020\000\000\276(\000\000\362\003\000\000\356\007\000\000g\010\000\000\027\013\000\000\364\003\000\000\347\007\000\000\331\010\000\000\323\007\000\000\364\007\000\000\230\010\000\000\303Y\000\000\364\003\000\000\026\010\000\000?\010\000\000K\010\000\000\355\003\000\000 \004\000\000^\r\000\000\314\007\000\000\331\010\000\000Z\010\000\000\331\007\000\000\355\003\000\000\037\004\000\000\323\030\000\000\362\003\000\000\331\007\000\000\355\003\000\000\037\004\000\000\351\007\000\000\363\007\000\000\007\010\000\000\314\007\000\000\310\022\000\000\362\003\000\000\331\007\000\000\355\003\000\000f\000\000\000e\000\000\000\006\010\000\000\021\010\000\000\356#\000\000\213\023\000\000\371\"\000\000\326\014\000\000\342\007\000\000\325\t\000\000\r\004\000\000-\014\000\000\007\010\000\000\r\004\000\000\305\024\000\000\242H\000\000\370\007\000\000\343\n\000\000\320\007\000\000i\017\000\000\325\007\000\000\213#\000\0009]\000\000:R\000\000TA\000\000\333\007\000\000k\n\000\000\320\007\000\000m\016\000\000\r\004\000\000f\t\000\000\314\010\000\000\005\004\000\000\021\010\000\000\322\007\000\000\342\007\000\000\362\003\000\000\322\007\000\000\027\010\000\000\357\007\000\000z\010\000\000\331\007\000\000\314\007\000\000\352:\000\000\355\003\000\000\037\004\000\000\r\r\000\000\362\003\000\000`\010\000\000\314\007\000\000\225)\000\000\306\014\000\000\363\003\000\000\367\007\000\000\260\033\000\000\321\034\000\000.\010\000\000(\020\000\000e\010\000\000\362\003\000\000\350\003\000\000\314\007\000\000\025\022\000\000\r\r\000\000\315\007\000\000\r\004\000\000\352:\000\000\323\007\000\000q\016\000\000\320\007\000\000U\r\000\000\n\010\000\000\001\004\000\000\203\013\000\000\314\007\000\000 \037\000\0008\t\000\000\314\007\000\000\"\020\000\000\320\007\000\000C1\000\000\323\007\000\000\334\t\000\000\364\003\000\000\350\003\000\000\345\007\000\000\213\023\000\000\371\"\000\000\326\014\000\000\343\n\000\000\320\007\000\000\225\030\000\000\327\007\000\000\314\007\000\000,\010\000\000\363\003\000\000p5\000\000\241\t\000\000\362\003\000\000\316\007\000\000\r\010\000\000\t\010\000\000\357\007\000\000%Y\000\000\022\004\000\000\364\003\000\000\014\\\000\000\337+\000\000\020\016\000\000\355\003\000\000\037\004\000\000\360\t\000\000\315\007\000\000\232\031\000\000vZ\000\000\362\003\000\000\220\016\000\000\321\t\000\000\335\007\000\000#\004\000\000\274#\000\000\362\003\000\000\362\024\000\000\247F\000\0002\010\000\000\362\003\000\000,\010\000\000f\020\000\000f\000\000\000e\000\000\000\026.\000\000\202.\000\000\223\r\000\000\355\003\000\000 \004\000\000\302\010\000\000\320\007\000\000\355+\000\000\007\010\000\000\362\003\000\000\331\007\000\000\355\003\000\000\037\004\000\000\241\026\000\000\351\007\000\000\r\004\000\000`\t\000\000\345\013\000\000q\014\000\000\345\007\000\000\331\007\000\000\323\007\000\000\r\004\000\000\3246\000\000\016\004\000\000\363\003\000\000q\014\000\000(\013\000\000\333\007\000\000\" \000\000\353[\000\000\370\007\000\000(\013\000\000Q\r\000\000l\n\000\000\355\007\000\000\321\007\000\000\202\010\000\000\3246\000\000c\n\000\000.\024\000\000\240C\000\000\364\003\000\000\314\007\000\000\274\016\000\000\323\007\000\000g\013\000\000\022\010\000\000\'\010\000\0004\'\000\000W\010\000\000!\010\000\000;\026\000\000\345\007\000\000\330\007\000\000\355\003\000\000\037\004\000\000\006\010\000\000\014\014\000\000\331\007\000\000\016\010\000\000\3246\000\000\362\003\000\000\314\007\000\000\026.\000\000\217\010\000\000\363\003\000\000\367\007\000\000\323\007\000\0002\022\000\000\316\007\000\000\r\022\000\000n\013\000\000\327\007\000\000\314\007\000\000.\024\000\000\362\003\000\000\314\007\000\000F5\000\000\323\007\000\000\364\007\000\000\003\t\000\000\316\007\000\000)\037\000\000\362\003\000\000\314\007\000\000_\010\000\000\323\007\000\000\342\017\000\000\315\007\000\000\022\010\000\000\r\004\000\000\026.\000\000\360\t\000\000\315\007\000\000\322\033\000\000\335\007\000\000\314\007\000\000\260M\000\000`\010\000\000\t\010\000\000S\010\000\000\000\010\000\000\322\033\000\000\007\010\000\000\026.\000\000L,\000\000\317\007\000\000\314\007\000\000\201\024\000\000\362\003\000\000\314\007\000\000q\r\000\000\350\007\000\000\331\021\000\000\316\007\000\000\037\010\000\000y\n\000\000\341\007\000\000ZB\000\000n\013\000\000\314\007\000\000\362\007\000\000\r\033\000\000\364\003\000\000\026.\000\000f\000\000\000e\000\000\000\314\007\000\000\242\t\000\000\323\007\000\000\r\004\000\000\242\010\000\000\276\017\000\000\316\007\000\000\r\004\000\000\242\010\000\000t\024\000\000\364\003\000\000\377e\000\000\311-\000\000Q;\000\000 \010\000\000\253\013\000\000\355\003\000\000 \004\000\000\372\010\000\000\230\010\000\000\234\010\000\000\316\007\000\000\025\004\000\000\261\t\000\000\355\003\000\000 \004\000\000\351\014\000\000\177\t\000\000\314\007\000\000\255\t\000\000\340\007\000\000\010\010\000\000Z\010\000\000\315\007\000\000\336\007\000\000\305%\000\000\362\003\000\000\355\007\000\000\321\007\000\000\007B\000\000\325\007\000\000\347\007\000\000\347\t\000\000\364\003\000\000\307,\000\000\277[\000\000S\024\000\000\362\003\000\000\274\025\000\000\362\003\000\000\260\014\000\000\332\007\000\000W\016\000\0006\021\000\000\r\014\000\000\347\t\000\000\316\007\000\000a=\000\000\214\037\000\000\323\007\000\000\032\010\000\000\r\010\000\000\363\003\000\000\r\010\000\000\310\014\000\000\325\007\000\000\r\004\000\000\240\014\000\000\315\007\000\000\336\007\000\000\204-\000\000\362\003\000\000\355\007\000\000\344\007\000\000\251\027\000\000\364\003\000\000\002\004\000\0003\037\000\000\365\003\000\000\004\004\000\000\002\004\000\0003\037\000\000\365\003\000\000\004\004\000\000\326\007\000\000\314\007\000\000\376\021\000\000\251\010\000\000\362\003\000\000F \000\000b\t\000\000\342\007\000\000\314\007\000\000\216\010\000\000\347\t\000\000\317\007\000\000\314\007\000\000_\010\000\000\364\003\000\000\025\004\000\000\313\020\000\000\322\007\000\000\342\007\000\000\016\010\000\000\212\014\000\000\362\003\000\000\324\007\000\000\322\007\000\000+\025\000\000\317\007\000\000\314\007\000\000E\010\000\000\177\t\000\000\315\007\000\000\314\007\000\000\242\t\000\000\364\003\000\000\364\007\000\000\362\003\000\000\331\007\000\000\321\007\000\000\363\026\000\000\320\007\000\000l\010\000\000\360\036\000\000\032\024\000\000f\000\000\000e\000\000\000\373\007\000\000\025\004\000\000\321\007\000\000\r\004\000\000\355\022\000\000\362\003\000\000\025\004\000\000\016\r\000\000R\016\000\000\347\007\000\0000\010\000\000\361\026\000\000\r\004\000\000\317\n\000\000\315\007\000\000\320\010\000\000\350\003\000\000v\021\000\000\350\003\000\000\254\030\000\000\364\003\000\000\t\010\000\000\355\003\000\000P\010\000\000\023\010\000\000\347\003\000\000\r\004\000\000\267=\000\000\355\003\000\000\037\004\000\000\242\t\000\000\323\007\000\000\r\004\000\000%\'\000\000\004%\000\000\007\010\000\000\r\004\000\000\267=\000\000z\010\000\000\247\'\000\000\356\003\000\000\356\027\000\000\333\007\000\000\314\007\000\000\007\033\000\000\226\010\000\000\2628\000\000\357\003\000\000\364\003\000\000\322\007\000\000(\020\000\000\r\004\000\000\242\010\000\000?\013\000\000\267=\000\000\314\007\000\000\242\t\000\000\007\010\000\000Q\010\000\000\314\007\000\000\344F\000\000\272\010\000\000\023\010\000\000\320\007\000\000\303\013\000\000\320\007\000\000\214\t\000\000\364\003\000\000\322\007\000\000\267\035\000\000\330\007\000\000\322\007\000\000\321\007\000\000@\010\000\000\315\007\000\000\314\007\000\000\326\t\000\000\330\007\000\000\234\n\000\000\024\010\000\000\023\010\000\000\362\003\000\000\307\010\000\000\327\007\000\000\026\010\000\000\376\n\000\000\364\003\000\000\314\007\000\000\204\r\000\000\365\003\000\000v\013\000\000\2341\000\000\315\007\000\000\347\007\000\000_\010\000\000\025\004\000\000\264\010\000\000\225\t\000\000\357\007\000\000\372\007\000\000)\016\000\000\325\007\000\000\024\010\000\000<\010\000\000\024\010\000\000\023\010\000\000\362\003\000\000\345\007\000\000\025\004\000\000K\010\000\000\355\003\000\000 \004\000\000\251\n\000\000\007\010\000\000\360\007\000\000\364\003\000\000\314\007\000\000\254\020\000\000\225\t\000\000\022\010\000\000\347\007\000\000\362\003\000\000\345\007\000\000\"\036\000\000\331\007\000\000\323\007\000\000f\000\000\000e\000\000\0002\024\000\000\364\003\000\000\027\004\000\000\364\003\000\000\\\027\000\000y\013\000\000q\014\000\000\364\003\000\000\316\007\000\000\r\004\000\000\377,\000\000\354\007\000\000\325\007\000\000\330\007\000\000\343\013\000\000\364\003\000\000\270\t\000\000$\010\000\000\314\007\000\000\225\r\000\000\033\025\000\000\020\016\000\000\356\003\000\000\356=\000\000\357\003\000\000\316\007\000\000\330\007\000\000i+\000\000\310Q\000\000k$\000\000z\010\000\000\372\033\000\000u\014\000\000\356\003\000\000Dp\000\000\357\003\000\000\364\003\000\000\345\007\000\000J+\000\000\263\010\000\000\331\007\000\000\362\003\000\000\314\007\000\000\0162\000\000\316\007\000\000\002G\000\000\265\010\000\000\033\010\000\000\326\021\000\000\321\007\000\000\r\004\000\000\242\013\000\000\235\010\000\000|\010\000\000\325\007\000\000\361\007\000\000\364\003\000\000\177\t\000\000N\010\000\000#\010\000\000\314\007\000\000q\014\000\000\025\004\000\000\335\t\000\000\016\t\000\000\320\007\000\000\363\r\000\000\007\010\000\000;\010\000\000\341\n\000\000\315\007\000\000\326\021\000\000\362\003\000\000\316\007\000\000\025\004\000\000\321\007\000\000N#\000\000\210\n\000\000\261\030\000\000m\010\000\000\364\003\000\000\345\007\000\000\330\007\000\000\323\t\000\000\351\007\000\000\374\n\000\000\330\007\000\000\314\007\000\000_\010\000\000\323\007\000\000\351\007\000\000\264\020\000\000\001\010\000\000\003\010\000\000\364\003\000\000\005\010\000\000\362\003\000\000\351\007\000\000\334\007\000\000\363\007\000\000\364\003\000\000\362\007\000\000\177\t\000\000\356\003\000\000\324\007\000\000\335\t\000\000D\010\000\000\206\010\000\000\357\007\000\000z\033\000\000\357\003\000\000\323\007\000\000\2740\000\000\364\003\000\000\375\007\000\000\350\007\000\000\026\010\000\000\331\013\000\000\031\010\000\000\341\007\000\000\223\n\000\000\320\007\000\000\275\022\000\000\263\014\000\000\314\007\000\000\250\t\000\000f\000\000\000e\000\000\000\365\010\000\000\331\007\000\000\362\003\000\000\365\010\000\000\331\007\000\000\362\003\000\000\365\010\000\000\331\007\000\000\347\003\000\000\347\007\000\000\323\007\000\000\202\010\000\000\246\033\000\000\270T\000\000\024\013\000\000\335\007\000\000\314\007\000\000B\036\000\000\007\r\000\000\031\004\000\000\364\003\000\000\335\007\000\000\314\007\000\000o\013\000\000\320\007\000\000\314\007\000\000\233\010\000\000\362\003\000\000\347\007\000\000\323\007\000\000\354\007\000\000\306\t\000\000\016\035\000\000\347\003\000\000K\010\000\000\355\003\000\000 \004\000\000>$\000\000\331\007\000\000\363\003\000\000e\023\000\000\331\007\000\000%\010\000\000\347\003\000\000f\000\000\000\000\000\000\000\000\000\000\000\000\000\000\000\000\000\000\000\000\000\000\000\000\000\000\000\000\000\000\000\000\000\000\000\000\000\000\000\000\000\000\000\000\000\000\000\000\000\000\000\000\000\000\000\000\000\000\000\000\000\000\000\000\000\000\000\000\000\000\000\000\000\000\000\000\000\000\000\000\000\000\000\000\000\000\000\000\000\000\000\000\000\000\000\000\000\000\000\000\000\000\000\000\000\000\000\000\000\000\000\000\000\000\000\000\000\000\000\000\000\000\000\000\000\000\000\000\000\000\000\000\000\000\000\000\000\000\000\000\000\000\000\000\000\000\000\000\000\000\000\000\000\000\000\000\000\000\000\000\000\000\000\000\000\000\000\000\000\000\000\000\000\000\000\000\000\000\000\000\000\000\000\000\000\000\000\000\000\000\000\000\000\000\000\000\000\000\000\000\000\000\000\000\000\000\000\000\000\000\000\000\000\000\000\000\000\000\000\000\000\000\000\000\000\000\000\000\000\000\000\000\000\000\000\000\000\000\000\000\000\000\000\000\000\000\000\000\000\000\000\000\000\000\000\000\000\000\000\000\000\000\000\000\000\000\000\000\000\000\000\000\000\000\000\000\000\000\000\000\000\000\000\000\000\000\000\000\000\000\000\000\000\000\000\000\000\000\000\000\000\000\000\000\000\000\000\000\000\000\000\000\000\000\000\000\000\000\000\000\000\000\000\000\000\000\000\000\000\000\000e\000\000\000\360\013\000\000f\023\000\000\355\003\000\000\037\004\000\0007(\000\000\361\007\000\000O\010\000\000\025\004\000\000\032\010\000\000\357\007\000\000\320\007\000\000\177\010\000\000\371\007\000\000\316\007\000\000e\023\000\000\331\007\000\000\364\003\000\000\347\007\000\000\321\007\000\000\354\007\000\000\315\007\000\000\250\010\000\000;\026\000\000\364\003\000\000\022\010\000\000D\010\000\000\326\007\000\000\206\010\000\000\362\003\000\000\025\004\000\000\016\r\000\000\275\016\000\000\331\007\000\000\324\007\000\000\r\004\000\000\327\n\000\000\316\007\000\000\032\017\000\000\331\007\000\000\364\003\000\000\025\004\000\000\224\010\000\0002\t\000\000\375\007\000\000\344\007\000\000\233\023\000\000\316\007\000\000\363\014\000\000 \016\000\000\330\007\000\000\344\007\000\000\305\013\000\000\362\003\000\000\r\010\000\000\025\004\000\000\321\007\000\000\320I\000\000\320\007\000\000l\010\000\000\006\010\000\000\353\007\000\000\225\t\000\000\346\007\000\000\364\003\000\000\025\004\000\0001\010\000\000i\027\000\000\330\007\000\000\314\007\000\000\350\003\000\000Y\r\000\000\320?\000\000\006\034\000\000,\013\000\000*\t\000\000\350\003\000\000\241\025\000\000\323\007\000\000%\010\000\000\r\004\000\000\203I\000\000b\010\000\000\356\003\000\000\324\007\000\000\323\007\000\000\314\007\000\000k\022\000\000\240\010\000\000\357\003\000\000\345\007\000\000\014\010\000\000$\010\000\000\330\007\000\000\362\003\000\000\025\004\000\000\203\010\000\000\005\010\000\000\221^\000\000U\t\000\000|\024\000\000\327\007\000\000\314\007\000\000\004\016\000\000\233\023\000\000\330\007\000\000\344\007\000\000d\t\000\000\023\010\000\000\317\007\000\000\365\007\000\000Fg\000\000}\010\000\000\364\003\000\0007\r\000\000\345\030\000\000\023\t\000\000\357\007\000\000\342\007\000\000\314\007\000\000\202\t\000\000\360\t\000\000\356\003\000\000\355\007\000\000\323\007\000\000\314\007\000\000\336\026\000\000f\000\000\000e\000\000\000\362\007\000\000\255\t\000\000\362\007\000\000\362\003\000\000\347\007\000\000q\014\000\000\323\007\000\000\2369\000\000W\010\000\0000\r\000\000\364\003\000\000\r\004\000\000;\n\000\000\370\007\000\000\r\n\000\000\326\007\000\000\265\035\000\000\017\004\000\000\362\010\000\000P\014\000\000\324\007\000\000\r\004\000\000\342$\000\000\365\003\000\000\254\017\000\000\331\032\000\000\223n\000\000\362\003\000\000\314\007\000\000}h\000\000\352!\000\000\361\007\000\000\211\010\000\000\364\003\000\000\370\010\000\000E\010\000\000\025\004\000\000\321\007\000\000\204&\000\000\333\007\000\000\006\010\000\000\321\007\000\000\326\007\000\000:\017\000\000\324\007\000\000\325\007\000\000\314\007\000\000\242\t\000\000\362\003\000\000,\010\000\000\362\003\000\000\331\007\000\000\355\003\000\000\037\004\000\000\034\014\000\000\364\003\000\000\331\007\000\000\355\003\000\000\037\004\000\000\351\007\000\000\207\010\000\000\320\007\000\000\343\010\000\000\314\007\000\000(\010\000\000\326\007\000\000\357\t\000\000\362\003\000\000\345\007\000\000\021\010\000\000\341\007\000\000\022\010\000\000C\010\000\000+q\000\000\305\027\000\000g\025\000\000\363\003\000\000\355b\000\000\303\'\000\000J\013\000\000\322\033\000\000\356\003\000\000\316\007\000\000\370\007\000\000\253\013\000\000\355\003\000\000 \004\000\000\005\004\000\000\357\003\000\000\013\010\000\000\341\007\000\0001\010\000\000\346\007\000\000\252\013\000\000\364\003\000\000\002\004\000\0003\037\000\000\365\003\000\000\004\004\000\000\002\004\000\0003\037\000\000\365\003\000\000\004\004\000\000\025\004\000\000\037\010\000\000\357\007\000\000\320\007\000\0008\t\000\000\330\007\000\000\025\004\000\000C\t\000\000\314\007\000\000H\t\000\000\274\016\000\000\321\007\000\000?\r\000\000yQ\000\000\316\007\000\000*N\000\000xX\000\000\370\013\000\000\335\007\000\000\314\007\000\000q\014\000\000\324\007\000\000\r\004\000\000f\000\000\000e\000\000\000N\010\000\000\362\003\000\000N\010\000\000\023\010\000\000\317\007\000\000\314\007\000\000\031\017\000\000\362\003\000\000b\010\000\000\035\010\000\000\267\031\000\0007\030\000\000\002\010\000\000\321\007\000\000&\035\000\000\316\007\000\000:-\000\000\243\010\000\000\320\007\000\000\210 \000\000\365\007\000\000H\010\000\000V=\000\000\362\003\000\000\314\007\000\000^\010\000\000s\010\000\000\316\007\000\000T\013\000\000\344\007\000\000\334\007\000\000y\010\000\000\014\010\000\000\355\003\000\000\037\004\000\000\257\016\000\000\317\007\000\000\314\007\000\000(\010\000\000\266\026\000\000w\n\000\000\364\003\000\000\016\r\000\000\336\013\000\000\337\007\000\000\022\010\000\000\355\003\000\000\032\n\000\000\274\n\000\000\347\003\000\000\362\003\000\000\355\003\000\000\355\003\000\000\314\007\000\000G\013\000\000\350\007\000\000K\n\000\000\347\007\000\000f\t\000\000\n\010\000\000\362\003\000\000\355\003\000\000\316\007\000\000\355\003\000\000\351\022\000\000\350\007\000\000\2236\000\000\005\004\000\000\355\003\000\000\002\004\000\0003\037\000\000\365\003\000\000\004\004\000\000\002\004\000\0003\037\000\000\365\003\000\000\004\004\000\000\324\007\000\000\314\007\000\000\013-\000\000j\016\000\000\034\016\000\0002\010\000\000+\010\000\000\316\007\000\000:-\000\000\3232\000\000;\013\000\000\r\004\000\000\323\016\000\000\246F\000\000\362\003\000\000\250\t\000\000\366\032\000\000:\023\000\000!\010\000\000\354\007\000\000\315\007\000\000\223\010\000\000\225#\000\000\376\007\000\000\314\007\000\000\306\017\000\000\373\032\000\000\327\007\000\000\332\007\000\000\375\013\000\000\034;\000\000\355\003\000\000\322\014\000\000\362\010\000\000\222\035\000\000\362\003\000\000\355\003\000\000\355\007\000\000)\017\000\000\n\010\000\000\352\003\000\000\275\017\000\000\226\t\000\000\317\007\000\000!\004\000\000\364\003\000\000\037\004\000\000\364\003\000\000\232\r\000\000f\000\000\000e\000\000\000\347\007\000\000\323\007\000\000\r\004\000\000|\t\000\000\003\t\000\000\234\t\000\000\335\007\000\000M+\000\000\005R\000\000\364\003\000\000\347\007\000\000\323\007\000\000Z\010\000\000\315\007\000\000\000\010\000\000<\t\000\000T\021\000\000\000\004\000\000\314\007\000\000\242\010\000\000\'\r\000\000\254\020\000\000\317\007\000\000\314\007\000\000\234\t\000\000\350\007\000\000z\t\000\000\314\007\000\000\234\'\000\000\'\r\000\000\320\007\000\000\357\007\000\000l\t\000\000\372\007\000\000\326\007\000\000_\010\000\000\316\007\000\000\314\007\000\000<\025\000\000\366\007\000\000\r\010\000\000D\010\000\000\251\027\000\000\316\007\000\000,\010\000\000\363\003\000\000\325\t\000\000\313\016\000\000\364\003\000\000\002\004\000\0003\037\000\000\365\003\000\000\004\004\000\000\002\004\000\0003\037\000\000\365\003\000\000\004\004\000\000\324\007\000\000\325\007\000\000\314\007\000\000\242\010\000\000\'\r\000\000\315\007\000\000\314\007\000\000\242\010\000\000\346P\000\000I$\000\000\337\007\000\000\362\003\000\000\025\004\000\000b&\000\000\020\010\000\000\355\003\000\000 \004\000\000\264\010\000\000\315\007\000\000\r\004\000\000\234\'\000\0003\010\000\000\355\022\000\000$\010\000\000\'!\000\000\301\022\000\000\334\007\000\000\007\010\000\000\357\010\000\000\200\010\000\000\364\003\000\000\276\n\000\000<\010\000\000\r\004\000\000\262\n\000\000\\9\000\000\3736\000\000\316\007\000\000\2158\000\000\253\022\000\000\004i\000\000\355\022\000\000\317\007\000\0005\010\000\000&\010\000\000\362\003\000\000\322\007\000\000\321\007\000\000\032\010\000\000f#\000\000\206\010\000\000\364\003\000\000\316\007\000\000\362\003\000\000\345\032\000\000\314\007\000\000\242\010\000\000j\022\000\000?\013\000\000\317\007\000\000\203\016\000\000\315\007\000\000\010\r\000\000\200m\000\000l\r\000\000\314\007\000\000R\010\000\000P\017\000\000\254\020\000\000f\000\000\000e\000\000\000\250\035\000\000\025\004\000\000\014\n\000\000\335\007\000\000\322\026\000\000\362\003\000\000\316\007\000\000\354\007\000\000j\010\000\000\025\004\000\000\321\007\000\000O\t\000\000\r\004\000\000_\010\000\000h\017\000\000\327\007\000\000\352\007\000\000\376\n\000\000\364\003\000\000\354\007\000\000\234\n\000\000\347\007\000\000q\014\000\000\327\007\000\000\360\007\000\000\350\003\000\000\035\013\000\000\270\n\000\000\247Z\000\000\350\003\000\000\316\007\000\000\331\007\000\000\321\007\000\000B\024\000\000\253%\000\000\364\003\000\000\374\007\000\000R\016\000\000A\n\000\000$\010\000\000\177\t\000\000\r\004\000\000+\r\000\000\t\010\000\000\343\n\000\000\320\007\000\000k\r\000\000\016\013\000\000\025\010\000\000\"\035\000\000\334\007\000\000\026\010\000\000\224\022\000\000\r\014\000\000\350\003\000\000u-\000\000\350\003\000\000\356\007\000\000\023\t\000\000\025\004\000\0008\t\000\000\350\003\000\000c\n\000\000u=\000\000\350\003\000\000\317\007\000\000\314\007\000\000q\014\000\000\364\003\000\000\025\004\000\000\321\007\000\000}\013\000\000\276\014\000\000\257\021\000\000\320\007\000\000x\t\000\000\371\007\000\000\330\007\000\000\347\007\000\000_\010\000\000\321\007\000\000\366\t\000\000\206\010\000\000\317\007\000\000\352\007\000\000\007*\000\000\322\026\000\000\364\003\000\000\364\003\000\000\364\003\000\000\330\007\000\000\212\t\000\000\357\007\000\000\372\007\000\000\314\007\000\000e\024\000\0003\032\000\000\347\007\000\000f\t\000\000l\t\000\000!\010\000\000\364\003\000\000f\000\000\000\000\000\000\000\000\000\000\000\000\000\000\000\000\000\000\000\000\000\000\000\000\000\000\000\000\000\000\000\000\000\000\000\000\000\000\000\000\000\000\000\000\000\000\000\000\000\000\000\000\000\000\000\000\000\000\000\000\000\000\000\000\000\000\000\000\000\000\000\000\000\000\000\000\000\000\000\000\000\000\000\000\000\000\000\000\000\000\000\000\000\000\000\000\000\000\000e\000\000\000\373o\000\000s$\000\000\000\004\000\000\314\007\000\000#\013\000\000\374\007\000\000\332\007\000\000\311\023\000\000\353\010\000\000\217\n\000\000\323\007\000\000\013Y\000\000\333\007\000\000\332\007\000\000T\t\000\000\363\003\000\000\317\007\000\000\363\003\000\000G\t\000\000\363\003\000\000\320\007\000\000\363\003\000\000\346\007\000\000\316\007\000\000\312$\000\000\330\007\000\000\375\007\000\000\323\007\000\000\r\004\000\000\222\t\000\000\221\026\000\000#\017\000\000\360\007\000\000\364\003\000\000\306\032\000\000\001\010\000\000\r\004\000\00056\000\000\335\007\000\000\314\007\000\000\023\r\000\000\362\003\000\000\316\007\000\000\351\007\000\000\332\007\000\000\377K\000\000\364\003\000\000\316\007\000\000J\r\000\000\340\007\000\000\354\020\000\000\367\007\000\000Q\034\000\000\364\003\000\000\364\003\000\000\364\003\000\000\314\007\000\000]%\000\000i#\000\000\334\007\000\000\314\007\000\000^*\000\000\316\007\000\000\334\007\000\000\332\007\000\000\037\032\000\000\363\003\000\000\317\007\000\000\363\003\000\000\265\020\000\000\364\021\000\000\364\003\000\000\316\007\000\000\331\007\000\000\323\007\000\000\334\t\000\000\320\007\000\000\002\n\000\000\r\004\000\000\013\016\000\000\373\007\000\000\336\007\000\000\375&\000\000.\022\000\000\363\003\000\000\362\032\000\000\342\007\000\000\360\007\000\000D\n\000\000\316\007\000\000$?\000\000\364\003\000\000\331\007\000\000\323\007\000\000\351\007\000\000\025\010\000\000\007\010\000\000F\035\000\000\332\007\000\000\246\023\000\000\364\003\000\000\364\003\000\000\364\003\000\000\331\007\000\000\323\007\000\000\007\010\000\000\013\036\000\000\364\003\000\000\002\004\000\0003\037\000\000\365\003\000\000\004\004\000\000\002\004\000\0003\037\000\000\365\003\000\000\004\004\000\000\370\036\000\000\000\004\000\000}\013\000\000|\010\000\000\270\t\000\000$\010\000\000\275\r\000\000\364\003\000\000\351\007\000\000\314\007\000\000f\000\000\000e\000\000\000\314\007\000\000I\023\000\000\033\004\000\000\355\003\000\000U\014\000\000(D\000\000\356\003\000\000\277\030\000\000\311-\000\000D$\000\000\r\004\000\000\3543\000\000\017\010\000\000:\016\000\000\357\003\000\000\002\004\000\0003\037\000\000\365\003\000\000\004\004\000\000\002\004\000\0003\037\000\000\365\003\000\000\004\004\000\000\206\036\000\000?\031\000\000\000\004\000\000\370\003\000\000\364\003\000\000\236\r\000\000\000\004\000\000\367\003\000\000\356\003\000\000k5\000\0002L\000\000\017f\000\000\357\003\000\000\002\004\000\0003\037\000\000\365\003\000\000\004\004\000\000\002\004\000\0003\037\000\000\365\003\000\000\004\004\000\0006\n\000\000\301\020\000\000\000\004\000\000\237I\000\000\002\004\000\0003\037\000\000\365\003\000\000\004\004\000\000\002\004\000\0003\037\000\000\365\003\000\000\004\004\000\000\356\003\000\000\236\r\000\000\326\034\000\000\316\007\000\000{\017\000\000\326\034\000\000\231\n\000\000\304+\000\000\357\003\000\000\002\004\000\0003\037\000\000\365\003\000\000\004\004\000\000\002\004\000\0003\037\000\000\365\003\000\000\004\004\000\000\r\004\000\000\375\030\000\000.\022\000\000\363\003\000\000|\023\000\000\356\003\000\000\356\030\000\000[<\000\000U\020\000\000\357\003\000\000\n\010\000\000\300g\000\000\337\007\000\000\r\004\000\000\324a\000\000<\025\000\000X\n\000\000\r\004\000\000\2078\000\000\246\t\000\000\027\027\000\000\316\007\000\0005\010\000\000\334\n\000\000\367\007\000\000\327\007\000\000\r\004\000\000\263\r\000\000\376\030\000\000\356\003\000\000\314\t\000\000\315\021\000\000\302\036\000\000\357\003\000\000\320\007\000\000l!\000\000\r\004\000\000\212\010\000\000\315\007\000\000\274&\000\000\334\007\000\000\314\007\000\000\275\032\000\000\362\003\000\000\037\023\000\000\274#\000\000\3432\000\000W\010\000\000\345\032\000\000\365\007\000\000\253\010\000\000\032\017\000\000T\017\000\000f\000\000\000e\000\000\000\025\004\000\0005\020\000\000\347\007\000\000\240\010\000\000\326\007\000\000\343\007\000\000\206:\000\000e\023\000\000\335\007\000\000\343_\000\000IW\000\000\364\003\000\000\025\004\000\000\014\n\000\000\314\025\000\000\025\004\000\000:\010\000\000\364\003\000\000\331\007\000\000\321\007\000\000\230\010\000\000\3246\000\000J\027\000\000\320\007\000\000Y\027\000\000\347D\000\0004\010\000\000\316\007\000\000\\\n\000\000\314\007\000\000\240\010\000\000\364\003\000\000\025\004\000\000\305\010\000\000\314\007\000\000\305 \000\000\344\007\000\000\314\007\000\000\216\010\000\000\025\004\000\000\357\007\000\000l\t\000\000\240\t\000\000\317\007\000\000\r\004\000\000q\014\000\000\365\003\000\000\240\010\000\000u1\000\000\364\003\000\000\314\007\000\000}\032\000\000\326\016\000\000\344\007\000\000\230\010\000\000\334\t\000\000\347\003\000\000\314\007\000\000kD\000\000\354\007\000\000\025\004\000\000\264\010\000\000\321\007\000\000\235\010\000\000\334\t\000\000\362\003\000\000\331\007\000\000!\010\000\000\361\007\000\000\r\010\000\000\336\'\000\000\025\004\000\000V\010\000\000\355\003\000\000 \004\000\000I\t\000\000\314\007\000\000\240\010\000\000\325\007\000\000\r\004\000\000\255\n\000\000\316\007\000\000\r\004\000\000\177\t\000\000\364\003\000\000\375\007\000\000\344\007\000\000\235\010\000\000D\010\000\000?\010\000\000\220\023\000\000\334\007\000\000\341\007\000\000\327\007\000\000\302\t\000\000\320\007\000\000\336\024\000\000A\t\000\000\356\007\000\000v\010\000\000\320\007\000\000\267\023\000\000\331\007\000\000\364\003\000\000\002\004\000\0003\037\000\000\365\003\000\000\004\004\000\000\002\004\000\0003\037\000\000\365\003\000\000\004\004\000\000\314\007\000\000\025\010\000\000\326\t\000\000\025\004\000\000\225\t\000\000\201\n\000\000\321\007\000\000\314\007\000\000\250/\000\000\363\010\000\000\364\003\000\000\025\004\000\000V\010\000\000\355\003\000\000f\000\000\000e\000\000\000\250\010\000\000\305.\000\000\314\007\000\000q\014\000\000V\023\000\000\r\010\000\000\254\010\000\000\317\007\000\000\314\007\000\000\375\010\000\000\212\t\000\000\357\007\000\000\332\031\000\000\371\007\000\000\026\010\000\000\315\007\000\000\001\010\000\000\266\017\000\000\230\010\000\000\254\010\000\000\326\007\000\000\364\003\000\000\347\007\000\000\323\007\000\000\r\004\000\000\234\010\000\000\242\t\000\000\315\007\000\000\r\004\000\000nG\000\000\014\013\000\000\370\007\000\000\317\016\000\000\321\n\000\000\316\007\000\000aR\000\000S;\000\000\332\007\000\000\201\017\000\000\320\007\000\000\233A\000\000\325\007\000\000\r\004\000\000\033\013\000\000\315\007\000\000\321\n\000\000\364\003\000\000\306\032\000\000\362\003\000\000\314\007\000\000\201\017\000\000\323\007\000\000\332\007\000\000\361\014\000\000\316\007\000\000\322\007\000\000\212\t\000\000\3637\000\000\360\007\000\000_\022\000\000\362\003\000\000\3773\000\000\332\007\000\000v\010\000\000\215\020\000\000\364\003\000\000\375\007\000\000\350\007\000\000\026\010\000\000\007\033\000\000\233\023\000\000\327\007\000\000?\010\000\000\3536\000\000\371\007\000\000\316\007\000\000\362\003\000\000\315\007\000\000/\n\000\000\362\003\000\000\314\007\000\000\233\023\000\000\373\007\000\000\314\007\000\000\000\010\000\000\350\007\000\000\326\007\000\000\314\007\000\000\302\n\000\000\334\007\000\000\314\007\000\000x\010\000\000\003\010\000\000\364\003\000\000\314\007\000\000\202\n\000\000@\010\000\000\323\007\000\000\r\004\000\000\242\013\000\000\212)\000\000\362\003\000\000\345\007\000\000\314\007\000\000\325]\000\000y\013\000\000\242\t\000\000\323\007\000\000\243\t\000\000\317\007\000\000\314\007\000\0009$\000\000\315\007\000\000\314\007\000\000\2246\000\000\364\003\000\000\354\007\000\000\326\t\000\000\025\004\000\000\357\007\000\000\320\007\000\000\206\024\000\000\323\007\000\000\314\007\000\000\274\010\000\000\2158\000\000f\000\000\000e\000\000\000\317\007\000\000\347\007\000\000\210G\000\000\315\007\000\000\314\007\000\000\335\014\000\000\225\017\000\000\316\007\000\000\355\003\000\000v\t\000\000-l\000\000\347\n\000\000\355\003\000\000\315\007\000\000r\010\000\000\362\003\000\000\226\010\000\000\2731\000\000\007d\000\000\260\014\000\000S\021\000\000\254\024\000\000jO\000\000\362\003\000\000\343\007\000\000\371.\000\000\265\n\000\000\320\007\000\000\320\007\000\000\355\003\000\000\342)\000\000\337\t\000\000n9\000\000\2251\000\000\355\003\000\000\320\007\000\000\232\010\000\000\371\007\000\000\2103\000\000\177O\000\000\362\003\000\000\370\007\000\000\323\007\000\000\245\n\000\000\026\010\000\000\272\r\000\000\221\t\000\000\330\007\000\0001\010\000\000\231\030\000\000&\021\000\000\325\007\000\000\314\007\000\000\350\010\000\000\374\r\000\000\'\t\000\000\315\007\000\000\314\007\000\000e\010\000\000\355\003\000\000\037\004\000\000\253\010\000\000\222\010\000\000\364\003\000\000\317\007\000\000\364\n\000\000\320\007\000\000\347\007\000\000\362\003\000\000\254\024\000\000jO\000\000\212\t\000\000\250g\000\000\212$\000\000\332\007\000\000S \000\000%\n\000\000\324\007\000\000\r\004\000\000/\014\000\000\331\010\000\000?\014\000\000\362\003\000\000\r\004\000\000\246\023\000\000\325\007\000\000\271\016\000\000\007\022\000\000\262*\000\000\3561\000\000\356\003\000\000XH\000\000\033R\000\000\357\003\000\000\362\003\000\000\316\007\000\000\r\004\000\000\307A\000\0004\010\000\000\332\020\000\000|\023\000\000\362\003\000\000M*\000\000\356\003\000\000\353\\\000\000\002\010\000\000\025S\000\000\030\010\000\000\357\003\000\000\364\003\000\000\002\004\000\0003\037\000\000\365\003\000\000\004\004\000\000\002\004\000\0003\037\000\000\365\003\000\000\004\004\000\000mN\000\000\314\007\000\000\367\017\000\000\037\027\000\000\000\004\000\000\002\004\000\0003\037\000\000\365\003\000\000f\000\000\000e\000\000\000\\/\000\000\356\003\000\000YA\000\000}3\000\000\226\021\000\000\357\003\000\000\323\007\000\000\r\004\000\000OE\000\000\330\007\000\000u\017\000\000\314\007\000\000\2246\000\000\314\007\000\000U \000\000\330\007\000\000\212\t\000\000\357\007\000\000\340\010\000\000\327\007\000\000\314\007\000\000V\020\000\000\315\007\000\000\314\007\000\0000\037\000\000_\010\000\000\355\013\000\000\r\004\000\000\375\010\000\000\323\014\000\000\364\003\000\000\347\007\000\000_\010\000\000\323\007\000\000\365\025\000\000\326\020\000\000\362\003\000\000\316\007\000\000\r\004\000\000c\010\000\000\315\007\000\000;+\000\000\364\003\000\000\314\007\000\000V\023\000\0006\030\000\000\316\007\000\000\314\007\000\000,$\000\000\350\007\000\000+ \000\000\362\003\000\000\316\007\000\000\025\020\000\000\327\007\000\000\314\007\000\0000\037\000\000iM\000\000\343D\000\000\337\007\000\000\315\007\000\000\260\034\000\000*\r\000\000=\010\000\000\317\007\000\000\314\007\000\000_\010\000\000\362\003\000\000-#\000\000\343\007\000\000\207I\000\000\316\007\000\000\037\023\000\000^r\000\000\346F\000\000\200*\000\000\026R\000\000\375\014\000\000\364\003\000\000\002\004\000\0003\037\000\000\365\003\000\000\004\004\000\000\002\004\000\0003\037\000\000\365\003\000\000\004\004\000\000\314\007\000\000\261\031\000\000\315\007\000\000%\031\000\000\022)\000\000\263f\000\000-S\000\000\316\007\000\000x\026\000\000\3661\000\000\317\007\000\000\314\007\000\000\203\r\000\000\350\007\000\000\000\010\000\000\021\027\000\000\270g\000\000\330\007\000\000\023\t\000\000\346\007\000\000\240\t\000\000\316\007\000\000\000\026\000\000\364\003\000\000\002\020\000\000\016\017\000\000\tc\000\000\307\r\000\000,\013\000\0008\016\000\000\332\007\000\000\003\t\000\000H\t\000\000\324\007\000\000\314\007\000\000\261+\000\000\364\003\000\000\002\004\000\0003\037\000\000f\000\000\000e\000\000\000\364\003\000\000\364\003\000\000\364\003\000\000\364\003\000\000\324\007\000\000\320\007\000\000\314\007\000\000\310\t\000\000\315\007\000\000^>\000\000\326\007\000\000\355\007\000\000\347\007\000\000\306\017\000\000t\026\000\000\364\003\000\000\236\021\000\000R\010\000\000\275\020\000\000t\r\000\000\023\014\000\000\362\003\000\000\350\003\000\000\020\010\000\000\025\004\000\000\037\010\000\000\331\007\000\000\364\003\000\000\364\003\000\000\364\003\000\000\364\003\000\000\355\003\000\000U\030\000\000\025\004\000\000&\t\000\000\305\036\000\000\350\003\000\000\323\007\000\000\r\004\000\000\002\014\000\000\315\007\000\000\356\003\000\000\276\014\000\000\357\003\000\000\202\031\000\000\2163\000\000\364\003\000\000D\010\000\000\315\007\000\000\024\010\000\000\350\007\000\000\r\010\000\000\234\t\000\000\330\007\000\000\341\007\000\000\020\010\000\000\355\003\000\000 \004\000\000W\013\000\000\331\007\000\000\373\007\000\000\341\007\000\000\006\025\000\000\330\007\000\000\330\007\000\000\321\007\000\000\253\017\000\000\320\007\000\000\346\007\000\000\314\007\000\000\223!\000\000S\020\000\000\356\003\000\000\266\n\000\000\000\004\000\000\314\007\000\000k\020\000\000\256J\000\000\031G\000\000\357\003\000\000\001\004\000\000\304\t\000\000\350\007\000\000\r\010\000\000b\010\000\000\330\007\000\000\341\007\000\000\020\010\000\000\355\003\000\000 \004\000\000W\013\000\000\331\007\000\000\373\007\000\000\341\007\000\000\006\025\000\000\330\007\000\000\353\007\000\000\256\n\000\000\r\010\000\000|\010\000\000\003\010\000\000\320\007\000\000\343\010\000\000\367\007\000\000\330\007\000\000\223!\000\000S\020\000\000\356\003\000\000\266\n\000\000\000\004\000\000\314\007\000\000\275\t\000\000\355\003\000\000\246\013\000\000\031G\000\000\357\003\000\000\364\003\000\000\316\007\000\000\355\013\000\000\363\007\000\000\350\007\000\000(\013\000\000\376\010\000\000g\010\000\000\367\013\000\000&\013\000\000f\000\000\000e\000\000\000\025\004\000\000\357\007\000\000\224\010\000\000\240\t\000\000\r\004\000\000\264\022\000\000q\014\000\000\364\003\000\000\002\004\000\0003\037\000\000\365\003\000\000\004\004\000\000\002\004\000\0003\037\000\000\365\003\000\000\004\004\000\000\331\007\000\000\323\007\000\000\t\013\000\000\320\007\000\000\232\010\000\000\r\004\000\000\347\025\000\000\351\031\000\000\367\007\000\000v\n\000\000\240\010\000\000\316\007\000\000\217\010\000\000\331\007\000\000\376\007\000\000\r\004\000\000\377,\000\000q\014\000\000\364\003\000\000\002\004\000\0003\037\000\000\365\003\000\000\004\004\000\000\002\004\000\0003\037\000\000\365\003\000\000\004\004\000\0003\032\000\000\367\003\000\000\000\004\000\000\246\033\000\000\005\010\000\000R\021\000\000\320\007\000\000g\010\000\000\315\007\000\000\314\007\000\000\246\r\000\000\364\003\000\000\317\007\000\000\347\007\000\000q\014\000\000\341\007\000\000K\010\000\000\355\003\000\000 \004\000\000(\025\000\000\327\007\000\000g\010\000\000\315\007\000\000\314\007\000\000\246\r\000\000Z\010\000\000\364\003\000\000\364\003\000\000\364\003\000\000\341\007\000\000K\010\000\000\355\003\000\000 \004\000\000S\010\000\000\r\004\000\0006\r\000\000\364\003\000\000\002\004\000\0003\037\000\000\365\003\000\000\004\004\000\000\002\004\000\0003\037\000\000\365\003\000\000\004\004\000\000\314\007\000\000\025\010\000\000\027\013\000\000\330\007\000\000\323\007\000\000\3422\000\000\356\007\000\000R\010\000\000\363\026\000\000\323\007\000\000\314\007\000\000\365\026\000\000\220\010\000\000\000\004\000\0007?\000\000\235\021\000\000\324\007\000\000\241\010\000\000\333\007\000\000k?\000\000:\023\000\000\364\003\000\000\310\014\000\000\325\007\000\000\347\007\000\000\326\020\000\000\027\013\000\000\362\003\000\000\314\007\000\000X%\000\000\315\007\000\000\314\007\000\000q\014\000\000\323\007\000\000 b\000\000\324\007\000\000\363\007\000\000\314\007\000\000f\000\000\000e\000\000\000\025\004\000\000\264\010\000\000)\n\000\000\362\022\000\000\323\007\000\000\003\t\000\000\347\003\000\000\362\007\000\000q\010\000\000\321\007\000\000\265\031\000\000\362\003\000\000\316\007\000\000\342\007\000\000\r\004\000\000\234\010\000\000<\025\000\000\364\003\000\000\327\007\000\000\002\020\000\000\356\003\000\000\t \000\000OG\000\000\357\003\000\000\324\007\000\000\343\007\000\000\350\030\000\000$\004\000\000\363\003\000\000\373\003\000\000\362\003\000\000n\010\000\000\354\021\000\0006\026\000\000\345\020\000\000\362\003\000\000k\n\000\000\320\007\000\000\335<\000\000\320\007\000\000\r\004\000\000W\016\000\000v\010\000\000\362\003\000\000\345\007\000\000a\010\000\000\350\003\000\000F\035\000\000\314\007\000\000(\010\000\000\350\003\000\000\364\003\000\000\316\007\000\000<\010\000\000Z9\000\000\333\007\000\000n\010\000\000\354\021\000\0006\026\000\000\362\n\000\000\314\007\000\000q\010\000\000\355\007\000\000u\017\000\000\314\007\000\000\212\010\000\000\026\010\000\000u\021\000\000\030E\000\000\364\003\000\000\002\004\000\0003\037\000\000\365\003\000\000\004\004\000\000\002\004\000\0003\037\000\000\365\003\000\000\004\004\000\000\314\007\000\000E\010\000\000q\010\000\000\367\010\000\000J\r\000\000f\010\000\000\r\004\000\000\242\013\000\000X\027\000\000\006\020\000\000\320\007\000\000\314\007\000\000\362\007\000\000\364\003\000\000\314\007\000\000<\025\000\000(E\000\000+\025\000\000\362\003\000\000\316\007\000\000\314\007\000\000\212\010\000\000\207\t\000\000\r\004\000\000\242\010\000\000\315\007\000\000\331\007\000\000\355\003\000\000\037\004\000\000L+\000\000\362\003\000\000\276\014\000\000Z\010\000\000\315\007\000\000\363\007\000\000\314\007\000\000\341\032\000\000\350\003\000\000\241\034\000\000\350\003\000\000\225\027\000\000\364\003\000\000K\010\000\000\355\003\000\000 \004\000\000S\010\000\000\361\007\000\000\354\014\000\000f\000\000\000e\000\000\000\362\007\000\000M\010\000\000\362\003\000\000\025\004\000\000\357\007\000\000\320\007\000\0008\t\000\000\330\007\000\000\025\004\000\000\032\017\000\000\314\007\000\000\"\t\000\000\017\020\000\0000\017\000\000\364\003\000\000\025\004\000\000w\014\000\000\331\007\000\000\327\007\000\000\352\007\000\000\210\030\000\000n\016\000\000\241\t\000\000\362\003\000\000\316\007\000\000\331\007\000\000\321\007\000\000\003\t\000\000\364\003\000\000\t\010\000\000\364\007\000\000\343\n\000\000\330\007\000\000R\016\000\000\314\007\000\000q\014\000\000\004\010\000\000\346\007\000\000U;\000\000\364\003\000\000\314\007\000\000q\014\000\000\321\007\000\000\r\010\000\000\030=\000\000\320\007\000\000\361\007\000\000\364\003\000\000\314\007\000\000q\014\000\000\353\035\000\000\371\007\000\000\026\010\000\000\246\r\000\000\362\003\000\000\316\007\000\000\246V\000\000\r\004\000\000\033\013\000\000\315\007\000\000\314\007\000\000<\t\000\000}\n\000\000\315\007\000\000\314\007\000\000\"\t\000\000\364\003\000\000\331\007\000\000\3664\000\000\337\007\000\0009\010\000\000\r\004\000\000\033\013\000\000\362\003\000\000\316\007\000\000\253\013\000\000\355\003\000\000 \004\000\000\377\022\000\000\311\t\000\000\317\007\000\000K\033\000\000\364\003\000\000\021\010\000\000;\n\000\000\321\007\000\000R\016\000\000\347\007\000\000q\014\000\000\376\010\000\000O\t\000\000\362\007\000\000w\014\000\000\314\007\000\000\"\t\000\000\362\003\000\000\353\007\000\000\004\010\000\000\346\007\000\000Q\025\000\000\364\003\000\000\314\007\000\000\'\010\000\000\030=\000\000\326\t\000\000\317\007\000\000\347\007\000\000q\014\000\000\320\007\000\000\361\007\000\000\362\003\000\000\321\007\000\000\314\007\000\000\326\021\000\000\364\003\000\000\314\007\000\000\326\021\000\000\317\007\000\000\314\007\000\000\"\t\000\000\321\007\000\000\314\007\000\000\'\010\000\000X\017\000\000\362\003\000\000\316\007\000\000f\000\000\000e\000\000\000\347\007\000\000q\014\000\000\321\007\000\000\230(\000\000\003\t\000\000q\014\000\000\363\007\000\000#\010\000\000\2530\000\000\324\007\000\000%\014\000\000\364\003\000\000\316\007\000\000\025\004\000\000\374\n\000\000\331\007\000\000\377X\000\000\361\007\000\000\371\007\000\000\324\007\000\000|\010\000\000\324\007\000\000\373\037\000\000\316\007\000\000\331\007\000\000\316\007\000\000\314\007\000\000\370F\000\000@\t\000\000!\021\000\000\364\003\000\000\345\007\000\000\327\007\000\000\r\004\000\000\003\t\000\000q\014\000\000\356\014\000\000\r\004\000\000\367\'\000\000\326\021\000\000m\010\000\000\005\004\000\000m\010\000\000\347\003\000\000\347\007\000\000;\026\000\000\326\021\000\000\321\007\000\0003C\000\000E\023\000\000\364\003\000\000\025\004\000\000\374\n\000\000\r\004\000\000q\026\000\0005\t\000\000\023\010\000\000\003\010\000\000\317\007\000\000\r\004\000\000\251P\000\000p\010\000\000\316\007\000\000\331\007\000\000L\032\000\000%\010\000\000\025\004\000\000\357\007\000\000\035\n\000\000\330\007\000\000\331\007\000\000\225\013\000\000\025\004\000\000\020\010\000\000_\n\000\000\336\007\000\000\316\007\000\000\331\007\000\000#\r\000\000\346\007\000\000\314\007\000\000m\010\000\000\003\010\000\000b\r\000\000\340\007\000\000L\032\000\000\331\007\000\000\323\007\000\000\364\003\000\000m\010\000\000\005\004\000\000\354\014\000\000\364\003\000\000\352\007\000\000\030\022\000\000\347\003\000\000\025\004\000\000K\010\000\000\355\003\000\000 \004\000\000\251\n\000\000\021\010\000\000\314\007\000\000q\026\000\000\323\007\000\000\233A\000\000\362\003\000\000\331\007\000\000\032\010\000\000\253\013\000\000\355\003\000\000 \004\000\0004\020\000\000\364\003\000\000\001\010\000\000\r\004\000\000q\014\000\000\274\n\000\000\345\007\000\000\'\010\000\000\233\022\000\000;\026\000\000\356\007\000\000\354\026\000\000;\026\000\000\022\010\000\000f\000\000\000e\000\000\000\347\007\000\000\255\020\000\000\r\004\000\000y.\000\0003\010\000\000*\010\000\000r%\000\000\261\024\000\000\352I\000\000\316\007\000\000\r\004\000\000|\023\000\000\364\003\000\000\364\003\000\000\364\003\000\000\352I\000\000#s\000\000\330\007\000\000\314\007\000\000n\010\000\000\020\010\000\000\351\007\000\000\177\024\000\000\343\007\000\000\234\013\000\000\001\t\000\000\317\007\000\000\r\004\000\000\325B\000\000\365\014\000\000\364\003\000\000,\010\000\000\362\003\000\000\315\007\000\000/\n\000\000\322\007\000\000\020\010\000\000\362\003\000\000\345\007\000\0001\010\000\000\322\007\000\000\340\010\000\000\371\007\000\000\037\023\000\000\246=\000\000\010]\000\000\005\004\000\000\334\t\000\000\320\007\000\0008\t\000\000\327\007\000\000\363\007\000\000J\010\000\000\346\020\000\000?\010\000\000\330\007\000\000\203\023\000\000\355\003\000\000 \004\000\000\253\017\000\000\320\007\000\000\346\007\000\000\375\007\000\000\0173\000\0009\010\000\000\362\003\000\000t\010\000\000\314\007\000\000\0145\000\000%\031\000\000H2\000\000\364\003\000\000\347\007\000\000\323\007\000\000\r\004\000\000\037\034\000\000X\027\000\000_\010\000\000\317\007\000\000\330\007\000\000\314\007\000\000x \000\000\323\007\000\000G\010\000\000\317\007\000\000m\t\000\000\316\007\000\000Z\t\000\000\362\003\000\000\316\007\000\0004>\000\000\023\010\000\000\316\007\000\000o\026\000\000\r\004\000\000\325\010\000\000\037\t\000\000\364\003\000\0007\r\000\000\347\007\000\000\323\007\000\000\035\n\000\000Z\010\000\0009#\000\000\315\007\000\000\3045\000\000\311!\000\000\344\007\000\000\207\t\000\000\005\004\000\000\331\007\000\000\355\003\000\000\037\004\000\000\364\007\000\000\262\n\000\000)\n\000\000\316\007\000\000\256J\000\000}3\000\000\350N\000\000\362\003\000\000<\010\000\000\330\007\000\000\354\007\000\000\253\013\000\000\355\003\000\000f\000\000\000e\000\000\000\026\010\000\000;\026\000\000\341\007\000\000\032\010\000\000A\010\000\000\341\007\000\000\355\003\000\000P\010\000\000\207\010\000\000\320\007\000\000\365\010\000\000\335\007\000\000\314\007\000\000\362\007\000\000\325\010\000\000\357\016\000\000\364\003\000\000\347\007\000\000\323\007\000\000\354\007\000\000\315\007\000\000\250\010\000\000;\026\000\000\364\003\000\000\013B\000\000\331\007\000\000\355\003\000\000\037\004\000\000\003\030\000\000\023\010\000\000\320\007\000\000\350\003\000\000\361\014\000\000#k\000\000\351\031\000\000\346X\000\000\362\003\000\000\350\003\000\000\316\007\000\000\350\003\000\000\314\007\000\000\207\n\000\000R\t\000\000\243\t\000\000\323\035\000\000\337\016\000\000\350\003\000\000\317\007\000\000\314\007\000\0007\013\000\000\355\003\000\000\037\004\000\000\363\003\000\000\347\007\000\000\321\007\000\000\r\004\000\000\003\t\000\000\266\n\000\000\315\007\000\000\233\n\000\000_\010\000\000\343<\000\000\317\007\000\000\314\007\000\000b\017\000\000\355\003\000\000\037\004\000\000\364\003\000\000L\020\000\000,\037\000\000\260\014\000\000\314\007\000\000\350\003\000\000+\010\000\000\326\007\000\000\332\007\000\000O\032\000\000\350\003\000\000<\t\000\000\027\013\000\000\370\007\000\0008\020\000\000\024\021\000\000\372l\000\000\317\007\000\000\r\004\000\0009\014\000\000\363\003\000\000\004\n\000\000\274\017\000\000<\025\000\000\363\003\000\000\316\007\000\000\332\007\000\000O\032\000\0000\016\000\000\335\007\000\000g\013\000\000\320\007\000\000\264\022\000\000\320\007\000\000R\010\000\000\264\022\000\000\324\007\000\000\322\007\000\000\363\024\000\000\316\007\000\000\363\024\000\000\320\007\000\000S\010\000\000\211\010\000\000\335\007\000\000\314\007\000\000?\010\000\000\362\003\000\000\275\010\000\000\362\003\000\000\310\022\000\000\316\007\000\000\331\023\000\000\315\007\000\000q\t\000\000(\n\000\000\261\010\000\000\364\003\000\000\377\033\000\000f\000\000\000e\000\000\000Z\026\000\000\315\007\000\0006B\000\000\323\007\000\000\312\020\000\000\314\007\000\000\'\010\000\000\356*\000\000q\014\000\0009\023\000\000\017\010\000\000\240\t\000\000\317\007\000\000\302\r\000\000&\010\000\000\364\003\000\000\331\007\000\000\213#\000\0009]\000\000\337\007\000\000\363\007\000\000\234*\000\000\316\007\000\000\323\007\000\000\365\025\000\000\r\004\000\000c\010\000\000\315\007\000\000\\\t\000\000\364\003\000\000\327\007\000\000\037\023\000\000\324I\000\000\n\036\000\000\363\023\000\000\250\r\000\000\016\024\000\000\316\007\000\000\242\t\000\000\315\007\000\000B\036\000\000\345J\000\000\362\003\000\000Z\026\000\000\315\007\000\0006B\000\000\307*\000\000\320\007\000\000\177\030\000\000\n\010\000\000\001\010\000\000\031\034\000\000\327\007\000\000\001\010\000\000\013\'\000\000\364\003\000\000\347\007\000\000q\014\000\000\323\007\000\000O\022\000\000\2154\000\000KK\000\000#\010\000\000\314\007\000\000\260\010\000\000\315\007\000\000h\010\000\000\343\031\000\000\017\004\000\000\340\026\000\000\355\007\000\000y\021\000\000\367\021\000\000\315\007\000\000\314\007\000\000\031\027\000\000\373\032\000\000\320\007\000\000l\010\000\000\365\007\000\000\362.\000\000\340\010\000\000\320\007\000\000v\010\000\000\364\003\000\000\314\007\000\000\274\016\000\000\323\007\000\000\353\016\000\000\325\007\000\000\347\007\000\000\014\013\000\000\315\007\000\000q\014\000\000\001\004\000\000\021\010\000\000\341\007\000\000\344\007\000\000\343\007\000\000s/\000\000\327\007\000\000\265+\000\000l\020\000\000\025\004\000\000\004\010\000\000\264\010\000\000\341\007\000\000\355\003\000\000\020\004\000\000\002\n\000\000\016\010\000\000\320\007\000\000J\021\000\000\364\003\000\000\002\004\000\0003\037\000\000\365\003\000\000\004\004\000\000\002\004\000\0003\037\000\000\365\003\000\000\004\004\000\0006\021\000\000\314\007\000\000\370\036\000\000\315\007\000\000f\000\000\000e\000\000\000\t\010\000\000\357\007\000\000h\010\000\000\234*\000\000\327\007\000\000\347\007\000\000\354\007\000\000\364\003\000\000\364\003\000\000\364\003\000\000Z\010\000\000\001\010\000\000&\004\000\000\356\024\000\000\006\026\000\000\371\003\000\000\314\007\000\000@\013\000\000i \000\000\320\007\000\000&\004\000\000\356\024\000\000\006\026\000\000\370\003\000\000\316\007\000\000(\013\000\000\333\007\000\000\3501\000\000o\016\000\000Y.\000\000p<\000\000\030\010\000\000\364\003\000\000\364\003\000\000\364\003\000\000~\010\000\000\364\003\000\000\364\003\000\000\364\003\000\000\001\010\000\000\332\t\000\000\363\003\000\000(\013\000\000\333\007\000\000\227(\000\000m\022\000\000\370\034\000\000\356\003\000\000\335\007\000\000\001\t\000\000\315\007\000\000\314\007\000\000\0327\000\000\357\003\000\000\316\007\000\000\351\007\000\000\325\t\000\000\333\007\000\000CG\000\000\016\"\000\000 \010\000\000rC\000\000So\000\000\030\010\000\000\345\007\000\000\333\007\000\000qL\000\000\370\032\000\000\331L\000\000 \010\000\000\356\003\000\000\001\t\000\000\315\007\000\000\314\007\000\000\0327\000\000\357\003\000\000\316\007\000\000\001\010\000\000c\013\000\000\317\007\000\000\314\007\000\000\254\030\000\000(F\000\000Z)\000\000\022\010\000\000\001\t\000\000\315\007\000\000\314\007\000\000\0327\000\000\316\007\000\000\2262\000\000\001\t\000\000\315\007\000\000\314\007\000\000\0327\000\000\356\003\000\000%\014\000\000\315\007\000\000\314\007\000\000\356\t\000\000\305\n\000\000\357\003\000\000\r\004\000\000\033\013\000\000\364\003\000\000\324\007\000\000\r\004\000\000\315\n\000\000\001\010\000\000\016\010\000\000\022\010\000\000\r\004\000\000\034\035\000\000\320\007\000\000%\014\000\000\315\007\000\000\314\007\000\000\356\t\000\000\305\n\000\000$\010\000\000&\004\000\000\356\024\000\000\006\026\000\000\370\003\000\000\364\003\000\000\370\032\000\000f\000\000\000e\000\000\000\025\004\000\000\365\010\000\000\344.\000\000\364\003\000\000\316\007\000\000T]\000\000\364\003\000\000\316\007\000\000)G\000\000\364\003\000\000jX\000\000\362\003\000\000\327\007\000\000\250\010\000\000\275-\000\000\317\007\000\000\010\n\000\000\362\003\000\000\363!\000\000n\023\000\000\000\004\000\000\234,\000\000\rT\000\000\023\t\000\000\357\007\000\000\372\007\000\000\314\007\000\000\216\010\000\000q\014\000\000l\t\000\000\364\003\000\000\002\004\000\0003\037\000\000\365\003\000\000\004\004\000\000\002\004\000\0003\037\000\000\365\003\000\000\004\004\000\000\331\007\000\000\323\007\000\000\351\007\000\000\364\003\000\000\002\004\000\0003\037\000\000\365\003\000\000\004\004\000\000\002\004\000\0003\037\000\000\365\003\000\000\004\004\000\000\314\007\000\000\267\027\000\000\260\r\000\000\022\010\000\000\r\004\000\000\2341\000\000\335\007\000\000E\t\000\000\r\034\000\000\362\003\000\000\316\007\000\000\366\007\000\000S\014\000\000\314\007\000\000x\010\000\000\036\013\000\000\315\007\000\000\307\"\000\0004\010\000\000q\013\000\000\364\003\000\000\347\007\000\000\225\t\000\000\346\007\000\000\034\014\000\000\021\010\000\000\314\007\000\000\221+\000\000V\022\000\000\355\003\000\000 \004\000\000\253\014\000\000\324\007\000\000\272\033\000\000\315\007\000\000\001\010\000\000P\n\000\000\324\007\000\000\353\007\000\000\271\017\000\000\320\007\000\000\346\007\000\000\364\003\000\000\330\007\000\000\323\007\000\000\320\007\000\0008\t\000\000\362\003\000\000\325\007\000\000\r\004\000\0004\014\000\000\317\007\000\000\r\004\000\000\306\t\000\000\307\"\000\000\360\022\000\000\317\007\000\000\343\007\000\000O\013\000\000\365\003\000\000\324@\000\000\251\"\000\000\365\003\000\000]\025\000\000\240C\000\000\330\007\000\000\027\010\000\000\212\026\000\000\335\007\000\000\026\010\000\000\223\031\000\000\362\003\000\000\314\007\000\000\234,\000\0008\020\000\000f\000\000\000e\000\000\000\331\007\000\000\323\007\000\000\005\010\000\000z\021\000\000\330\007\000\000\215\014\000\000\365\003\000\000\250\t\000\000\271\n\000\000%#\000\000Q\n\000\000\350\003\000\000\r\004\000\000\343\013\000\000\315\007\000\000v\010\000\000\316\007\000\000\033\t\000\000\362\003\000\000\350\003\000\000\332\007\000\000\316\007\000\000\265\036\000\000\224W\000\000\373\n\000\000%\022\000\000I\010\000\000\355\003\000\000\037\004\000\000\231\030\000\000\354 \000\000;\022\000\000\031\027\000\000\335\007\000\000N\017\000\000\320\007\000\000\346\007\000\000\332\007\000\000\205\"\000\000\315\007\000\000\365\007\000\000P\014\000\000:\t\000\000\364\003\000\000\237\010\000\000\034\010\000\000\314\007\000\000\")\000\000\315\007\000\000(\010\000\000r\010\000\000\370\003\000\000\362\003\000\000\347\007\000\000\366e\000\000\232\030\000\000\034\030\000\000\004\010\000\000\357\007\000\000\320\013\000\000\032\010\000\000\314\007\000\000\375m\000\000\325\007\000\000\r\004\000\000;1\000\000\223\034\000\0002\010\000\000\362\003\000\000X4\000\000\002\017\000\000\317\007\000\000&\t\000\000\315\007\000\000\r\004\000\000\234\010\000\000\367\007\000\000\354G\000\000\364\003\000\000\002\004\000\0003\037\000\000\365\003\000\000\004\004\000\000\002\004\000\0003\037\000\000\365\003\000\000\004\004\000\000\236\010\000\000\r\004\000\000,\024\000\000\315\007\000\000\014\010\000\000\3527\000\000r\010\000\000P\014\000\000\362\003\000\000\355\003\000\000\314\007\000\000NZ\000\000\355\003\000\000!\010\000\000\347\007\000\000\354\007\000\000\365\007\000\000hU\000\000X\037\000\000\332(\000\000\362\003\000\000m \000\000\004\033\000\000\377\017\000\000\316\007\000\000\'\010\000\000\3527\000\000\315\007\000\000\314\007\000\000\033\013\000\000\364\003\000\000hU\000\000\274C\000\000\276\023\000\000\275Q\000\000W\010\000\000\031\t\000\000\325\007\000\000\301j\000\000f\000\000\000e\000\000\000\362\007\000\000\315\007\000\000\363\007\000\000\362\003\000\000\025\004\000\000\235\010\000\000\321\007\000\000\212\037\000\000\202\010\000\000\022\025\000\000\363\003\000\000\363\003\000\000\r\004\000\000\230(\000\000c\010\000\000\315\007\000\000\\\t\000\000\325\007\000\000\314\007\000\000O\013\000\000\373\032\000\000\364\003\000\000\025\004\000\000\355\003\000\000\006\t\000\000\025\010\000\000\240\t\000\000\331\013\000\000\315\007\000\000\254T\000\000\033\010\000\000\240\032\000\000\237\023\000\000R\024\000\000\362\003\000\000\345\007\000\000\025\004\000\000\020\010\000\000*\026\000\000\330\007\000\000\331\007\000\000\323\007\000\000\270\t\000\000$\010\000\000\222\035\000\000\362\t\000\000.\010\000\000\364\003\000\000\002\004\000\0003\037\000\000\365\003\000\000\004\004\000\000\002\004\000\0003\037\000\000\365\003\000\000\004\004\000\000a\017\000\000\313\016\000\000\335\007\000\000\022\025\000\000\350\007\000\000\203\010\000\000\317\007\000\000\222\035\000\000\362\t\000\000.\010\000\000\000\004\000\000\003\t\000\000\3711\000\000\362\003\000\000\361\007\000\000[\031\000\000t+\000\000v\032\000\0002@\000\000\362\003\000\000\316\007\000\000VF\000\000\274\016\000\000\356\003\000\000\025\004\000\000\374\n\000\000\362\003\000\000\021\010\000\000\341\007\000\000\020\010\000\000\355\003\000\000 \004\000\000\351\014\000\000\r\004\000\000\325\n\000\000\353\007\000\000\350\007\000\000\336\013\000\000\362\003\000\000\376\010\000\000\314\007\000\000N\023\000\000&k\000\000\362\003\000\000\345\007\000\000\341\007\000\000a\010\000\000\251\n\000\000\363\003\000\000\363\003\000\000\330\007\000\000\355\003\000\000\037\004\000\000\234\010\000\000\274\016\000\000\357\003\000\000\002\004\000\0003\037\000\000\365\003\000\000\004\004\000\000\002\004\000\0003\037\000\000\365\003\000\000\004\004\000\000\006\010\000\000\315\010\000\000\354\014\000\000\005\004\000\000\006\010\000\000\255\020\000\000f\000\000\000e\000\000\000\025\004\000\000S\t\000\000\347\007\000\000_\010\000\0008\010\000\000\314\007\000\000\324\t\000\000\315\007\000\000\350\003\000\000\327\023\000\000\367\007\000\000\350\003\000\000\364\003\000\000\317\007\000\000\274\010\000\000\025\004\000\000\357\007\000\000\000\026\000\000\037\010\000\000\3057\000\000\270\010\000\000\355\003\000\000\037\004\000\000;\026\000\000\362\003\000\000\r\010\000\000\203\t\000\000\347\007\000\000\354\007\000\000\r\004\000\000\346\013\000\000\364\003\000\000\331\007\000\000+\t\000\000\355\003\000\000 